<unk>	0
<s>	0
</s>	0
en	-0
er	-1
in	-2
▁a	-3
▁t	-4
▁d	-5
ch	-6
es	-7
on	-8
un	-9
▁th	-10
is	-11
it	-12
▁s	-13
▁w	-14
ie	-15
at	-16
or	-17
an	-18
▁the	-19
re	-20
▁b	-21
▁o	-22
al	-23
ar	-24
▁in	-25
▁f	-26
te	-27
ich	-28
ion	-29
▁m	-30
as	-31
▁e	-32
▁an	-33
ro	-34
le	-35
▁un	-36
▁p	-37
▁c	-38
▁S	-39
▁h	-40
us	-41
ent	-42
ge	-43
▁of	-44
ur	-45
▁v	-46
▁n	-47
ing	-48
▁and	-49
▁to	-50
▁und	-51
▁die	-52
ung	-53
▁A	-54
ll	-55
ed	-56
▁E	-57
▁der	-58
▁I	-59
om	-60
ig	-61
st	-62
ic	-63
▁ein	-64
▁is	-65
▁M	-66
▁be	-67
▁D	-68
▁T	-69
▁B	-70
▁z	-71
▁P	-72
ir	-73
im	-74
ter	-75
▁g	-76
ra	-77
el	-78
ten	-79
em	-80
ut	-81
▁W	-82
der	-83
il	-84
ation	-85
ol	-86
eit	-87
et	-88
▁F	-89
den	-90
am	-91
ies	-92
▁l	-93
▁G	-94
um	-95
▁re	-96
hr	-97
▁k	-98
▁K	-99
uf	-100
sch	-101
▁R	-102
ct	-103
▁H	-104
▁C	-105
ul	-106
iv	-107
▁das	-108
ber	-109
de	-110
lich	-111
ür	-112
▁zu	-113
▁V	-114
ab	-115
isch	-116
▁for	-117
ier	-118
icht	-119
ot	-120
▁Th	-121
▁on	-122
▁L	-123
ere	-124
ess	-125
▁von	-126
gen	-127
ly	-128
est	-129
▁that	-130
os	-131
▁den	-132
▁U	-133
pe	-134
id	-135
and	-136
ers	-137
ein	-138
ce	-139
▁al	-140
▁pro	-141
▁wh	-142
ach	-143
omm	-144
▁r	-145
ow	-146
ort	-147
▁In	-148
▁st	-149
▁ist	-150
▁im	-151
kt	-152
▁wir	-153
▁ge	-154
ith	-155
▁für	-156
▁y	-157
▁auf	-158
▁ver	-159
▁N	-160
▁er	-161
uro	-162
uch	-163
if	-164
▁con	-165
▁with	-166
ver	-167
▁we	-168
ay	-169
ill	-170
ind	-171
▁it	-172
▁des	-173
▁dies	-174
▁are	-175
ve	-176
▁1	-177
ts	-178
ck	-179
ad	-180
▁Z	-181
▁as	-182
▁mit	-183
▁Sie	-184
▁Euro	-185
▁(	-186
▁ne	-187
▁The	-188
▁St	-189
iss	-190
end	-191
▁so	-192
▁dass	-193
▁de	-194
▁yo	-195
ment	-196
ate	-197
ik	-198
up	-199
af	-200
▁2	-201
▁eine	-202
th	-203
op	-204
▁se	-205
ischen	-206
men	-207
nen	-208
ungen	-209
ist	-210
▁Un	-211
for	-212
qu	-213
ib	-214
▁als	-215
la	-216
▁Ver	-217
ne	-218
ust	-219
ak	-220
▁-	-221
▁O	-222
ant	-223
▁ex	-224
ah	-225
▁j	-226
ity	-227
ien	-228
ug	-229
▁this	-230
ial	-231
▁J	-232
und	-233
▁ha	-234
▁dem	-235
ive	-236
▁wer	-237
▁An	-238
art	-239
▁or	-240
▁nicht	-241
▁co	-242
über	-243
ste	-244
än	-245
ff	-246
00	-247
▁Re	-248
port	-249
▁werden	-250
▁not	-251
ub	-252
▁le	-253
▁sich	-254
▁es	-255
▁Die	-256
▁all	-257
▁by	-258
igen	-259
ag	-260
tel	-261
▁have	-262
ann	-263
rom	-264
we	-265
igh	-266
▁at	-267
ben	-268
ain	-269
▁um	-270
uld	-271
iel	-272
ern	-273
ass	-274
▁aus	-275
▁uns	-276
▁sh	-277
▁ab	-278
▁you	-279
all	-280
▁com	-281
od	-282
▁will	-283
ungs	-284
aus	-285
▁über	-286
ions	-287
ze	-288
ure	-289
▁Pr	-290
ran	-291
▁me	-292
▁i	-293
▁which	-294
ommiss	-295
lie	-296
ted	-297
▁Be	-298
hen	-299
age	-300
ahr	-301
▁sind	-302
▁Sch	-303
ön	-304
▁hab	-305
du	-306
▁was	-307
▁Europe	-308
ard	-309
uss	-310
▁from	-311
hal	-312
pl	-313
▁en	-314
ould	-315
tern	-316
▁We	-317
▁Pro	-318
▁us	-319
ident	-320
pr	-321
tr	-322
og	-323
▁ent	-324
iz	-325
ische	-326
▁ch	-327
ommission	-328
▁En	-329
ss	-330
mer	-331
▁pr	-332
esch	-333
▁has	-334
▁sch	-335
fer	-336
enn	-337
▁wird	-338
och	-339
ip	-340
tz	-341
gr	-342
▁oder	-343
ue	-344
ige	-345
ine	-346
▁sein	-347
schaf	-348
ok	-349
▁res	-350
ft	-351
llen	-352
ud	-353
▁auch	-354
ap	-355
ise	-356
▁haben	-357
ens	-358
▁kön	-359
form	-360
ous	-361
ast	-362
▁hat	-363
ick	-364
pä	-365
our	-366
oc	-367
▁Ar	-368
▁Par	-369
ang	-370
err	-371
▁wor	-372
▁Er	-373
▁can	-374
me	-375
▁am	-376
▁vor	-377
ost	-378
able	-379
▁"	-380
ire	-381
▁ich	-382
etz	-383
erv	-384
▁wie	-385
keit	-386
he	-387
ore	-388
heit	-389
ieren	-390
▁he	-391
ia	-392
ert	-393
beit	-394
otel	-395
ations	-396
▁our	-397
ational	-398
cc	-399
▁wur	-400
dern	-401
ult	-402
ition	-403
▁European	-404
ament	-405
be	-406
▁Wir	-407
▁sie	-408
ical	-409
▁Ein	-410
ction	-411
lichen	-412
▁einer	-413
▁comp	-414
▁ad	-415
▁können	-416
are	-417
ese	-418
▁zur	-419
▁Mit	-420
rit	-421
▁war	-422
▁also	-423
ice	-424
▁einen	-425
ish	-426
out	-427
ated	-428
iert	-429
pro	-430
olit	-431
hl	-432
fü	-433
▁do	-434
ät	-435
se	-436
▁200	-437
pt	-438
ome	-439
aten	-440
urch	-441
ark	-442
ther	-443
ite	-444
tet	-445
▁Ge	-446
▁Ich	-447
ob	-448
▁Aus	-449
▁unter	-450
hre	-451
ord	-452
ign	-453
▁nach	-454
ün	-455
ru	-456
elt	-457
▁.	-458
ms	-459
▁Das	-460
her	-461
▁Es	-462
schaft	-463
är	-464
▁its	-465
▁part	-466
▁ap	-467
ates	-468
▁te	-469
ac	-470
ect	-471
▁mö	-472
vel	-473
oun	-474
▁gro	-475
ight	-476
▁Parl	-477
ake	-478
▁reg	-479
▁Union	-480
per	-481
▁your	-482
yste	-483
▁Fra	-484
▁qu	-485
▁man	-486
au	-487
ide	-488
▁Gr	-489
▁Dies	-490
▁jed	-491
ian	-492
▁EU	-493
tra	-494
ank	-495
ugh	-496
ember	-497
ary	-498
▁einem	-499
cial	-500
▁ag	-501
▁go	-502
con	-503
▁but	-504
▁It	-505
liche	-506
ör	-507
fen	-508
▁Mr	-509
ong	-510
▁there	-511
▁Herr	-512
oll	-513
▁Ber	-514
▁3	-515
eren	-516
ov	-517
ose	-518
▁19	-519
ear	-520
üss	-521
ail	-522
gt	-523
äs	-524
ual	-525
▁Commission	-526
▁bei	-527
▁Ab	-528
▁ro	-529
▁tra	-530
▁spe	-531
ime	-532
▁would	-533
cl	-534
▁more	-535
ück	-536
▁their	-537
▁Unter	-538
ile	-539
▁Vor	-540
pa	-541
ance	-542
chte	-543
▁been	-544
▁De	-545
cht	-546
rie	-547
av	-548
▁wurde	-549
este	-550
▁fin	-551
reat	-552
▁nur	-553
▁zum	-554
▁cont	-555
▁Al	-556
chen	-557
ame	-558
▁Le	-559
▁Te	-560
▁Der	-561
▁ar	-562
anz	-563
hmen	-564
▁gen	-565
ase	-566
tw	-567
ble	-568
▁durch	-569
oss	-570
imm	-571
ont	-572
▁Ch	-573
eine	-574
▁Europä	-575
▁diese	-576
▁coun	-577
▁dar	-578
▁Jahr	-579
rans	-580
hren	-581
ute	-582
chn	-583
gra	-584
sten	-585
▁one	-586
▁dis	-587
hn	-588
one	-589
ents	-590
glich	-591
▁This	-592
gan	-593
▁Hotel	-594
▁per	-595
▁comm	-596
▁acc	-597
wer	-598
ger	-599
ahl	-600
utz	-601
▁sp	-602
ild	-603
▁should	-604
ähr	-605
ution	-606
ack	-607
▁ob	-608
▁work	-609
▁bet	-610
▁pl	-611
ike	-612
act	-613
▁Se	-614
▁new	-615
▁alle	-616
▁kann	-617
pos	-618
ierung	-619
▁up	-620
äsident	-621
ht	-622
ely	-623
▁cl	-624
▁sup	-625
land	-626
auf	-627
▁ind	-628
▁ste	-629
▁Auf	-630
igkeit	-631
üssen	-632
ree	-633
formation	-634
▁countr	-635
ons	-636
ld	-637
▁Pres	-638
ke	-639
▁out	-640
ßen	-641
che	-642
ktion	-643
▁inter	-644
to	-645
▁For	-646
▁müssen	-647
ple	-648
schen	-649
ommen	-650
▁soll	-651
▁must	-652
geb	-653
wo	-654
▁pre	-655
▁who	-656
▁other	-657
▁dieser	-658
ner	-659
▁Sp	-660
▁ber	-661
▁produ	-662
▁Kommission	-663
▁they	-664
ities	-665
reich	-666
▁ma	-667
ks	-668
bar	-669
▁wenn	-670
▁Präsident	-671
▁need	-672
entr	-673
▁pe	-674
zu	-675
ments	-676
rat	-677
ors	-678
▁ev	-679
pf	-680
ces	-681
olog	-682
▁Reg	-683
▁very	-684
ater	-685
▁mehr	-686
ütz	-687
ystem	-688
gel	-689
glie	-690
▁intern	-691
ität	-692
▁polit	-693
gram	-694
▁year	-695
▁zw	-696
▁str	-697
▁bec	-698
▁only	-699
▁cons	-700
▁President	-701
▁weit	-702
ph	-703
halten	-704
▁like	-705
▁no	-706
▁5	-707
pen	-708
▁4	-709
▁fe	-710
oin	-711
▁about	-712
teil	-713
▁time	-714
▁sehr	-715
).	-716
wend	-717
ammen	-718
▁Y	-719
fl	-720
mit	-721
▁Men	-722
uen	-723
ible	-724
onder	-725
igt	-726
▁diesem	-727
ced	-728
▁unser	-729
▁any	-730
lin	-731
ious	-732
velop	-733
xt	-734
arbeit	-735
▁prov	-736
nehmen	-737
äl	-738
ibt	-739
enz	-740
usammen	-741
▁eff	-742
▁Mitglie	-743
▁vie	-744
ry	-745
ange	-746
▁aber	-747
ject	-748
assen	-749
erson	-750
ally	-751
cess	-752
olle	-753
▁ins	-754
nah	-755
ans	-756
▁ra	-757
ings	-758
▁ihre	-759
▁Arbeit	-760
oy	-761
ubl	-762
erm	-763
sche	-764
iament	-765
▁these	-766
alt	-767
▁trans	-768
▁off	-769
▁da	-770
▁rec	-771
ken	-772
▁sol	-773
io	-774
unden	-775
ats	-776
ular	-777
▁ges	-778
bs	-779
ism	-780
▁dire	-781
▁serv	-782
erste	-783
ility	-784
▁em	-785
▁such	-786
ges	-787
iger	-788
▁import	-789
▁jedoch	-790
ider	-791
ook	-792
fore	-793
led	-794
▁euro	-795
▁Member	-796
stit	-797
atz	-798
▁hin	-799
▁Um	-800
ient	-801
own	-802
ople	-803
erg	-804
ring	-805
iden	-806
▁develop	-807
cy	-808
ause	-809
irst	-810
leich	-811
fe	-812
▁Ma	-813
hnen	-814
kte	-815
▁20	-816
▁if	-817
▁Parlament	-818
▁pol	-819
enden	-820
isten	-821
ale	-822
itu	-823
ied	-824
ures	-825
▁wicht	-826
etzt	-827
sta	-828
▁/	-829
▁report	-830
▁Zeit	-831
▁gr	-832
▁act	-833
dition	-834
ative	-835
ays	-836
iven	-837
sp	-838
änd	-839
fol	-840
wn	-841
▁rel	-842
▁best	-843
als	-844
▁Europäischen	-845
ateg	-846
zeit	-847
▁bes	-848
▁international	-849
▁Menschen	-850
fahr	-851
▁sub	-852
conom	-853
▁over	-854
▁möchte	-855
amen	-856
ific	-857
llt	-858
▁people	-859
▁Parliament	-860
▁Or	-861
▁into	-862
fr	-863
▁bis	-864
cre	-865
▁eines	-866
str	-867
▁As	-868
▁..	-869
▁bie	-870
forder	-871
▁my	-872
führ	-873
▁Ihre	-874
▁Ne	-875
▁well	-876
▁viel	-877
▁inv	-878
▁muss	-879
ices	-880
▁sa	-881
▁gu	-882
äch	-883
▁some	-884
ink	-885
),	-886
▁Ü	-887
▁–	-888
▁Mitglied	-889
▁So	-890
▁were	-891
stütz	-892
▁gegen	-893
lo	-894
▁sow	-895
▁Mar	-896
wor	-897
icher	-898
▁noch	-899
▁Wenn	-900
ement	-901
arket	-902
cil	-903
▁...	-904
▁use	-905
▁what	-906
▁States	-907
▁,	-908
par	-909
▁countries	-910
rei	-911
▁dif	-912
▁high	-913
arge	-914
ließ	-915
▁gibt	-916
acht	-917
▁than	-918
ene	-919
▁Coun	-920
▁Me	-921
ention	-922
▁ho	-923
por	-924
ou	-925
ards	-926
▁Über	-927
▁gem	-928
ickl	-929
ory	-930
olitik	-931
▁la	-932
▁most	-933
▁europä	-934
▁Im	-935
▁first	-936
▁Bed	-937
very	-938
▁Q	-939
▁dec	-940
▁his	-941
▁hel	-942
▁bef	-943
▁kn	-944
▁US	-945
chten	-946
ett	-947
änder	-948
▁vom	-949
▁incl	-950
▁when	-951
ull	-952
▁econom	-953
▁polic	-954
halt	-955
▁keine	-956
▁wurden	-957
▁under	-958
▁Kon	-959
legen	-960
▁partic	-961
ating	-962
öff	-963
pect	-964
▁Land	-965
ters	-966
▁them	-967
▁zwischen	-968
sicht	-969
rough	-970
hrer	-971
essen	-972
▁Grund	-973
ues	-974
▁Council	-975
ict	-976
▁bas	-977
▁now	-978
▁Entw	-979
itte	-980
▁ele	-981
inn	-982
ho	-983
ße	-984
▁tr	-985
▁aut	-986
ages	-987
▁Fl	-988
▁just	-989
▁again	-990
▁dieses	-991
▁support	-992
att	-993
els	-994
ond	-995
esent	-996
▁important	-997
▁op	-998
▁make	-999
▁loc	-1000
▁He	-1001
wir	-1002
ween	-1003
▁verb	-1004
eschä	-1005
zie	-1006
▁many	-1007
ights	-1008
▁hotel	-1009
▁her	-1010
kl	-1011
▁Ent	-1012
▁how	-1013
▁bed	-1014
ös	-1015
▁fre	-1016
tschaft	-1017
▁between	-1018
▁ass	-1019
zial	-1020
▁unsere	-1021
▁Comm	-1022
issen	-1023
▁techn	-1024
▁fr	-1025
▁6	-1026
▁mo	-1027
je	-1028
any	-1029
▁pla	-1030
▁national	-1031
oth	-1032
▁propos	-1033
▁world	-1034
▁requ	-1035
ives	-1036
iet	-1037
ware	-1038
arm	-1039
hand	-1040
ence	-1041
▁Bericht	-1042
tre	-1043
▁because	-1044
▁gew	-1045
▁anderen	-1046
▁Mitgliedsta	-1047
ural	-1048
igung	-1049
fter	-1050
▁Produ	-1051
eln	-1052
▁market	-1053
▁poss	-1054
ublic	-1055
▁Verb	-1056
dr	-1057
▁Pl	-1058
▁bereit	-1059
hm	-1060
▁take	-1061
▁leg	-1062
▁Nach	-1063
geben	-1064
▁Ges	-1065
immer	-1066
▁Art	-1067
▁Entwickl	-1068
schie	-1069
erein	-1070
▁cre	-1071
itz	-1072
vern	-1073
blem	-1074
uß	-1075
▁pos	-1076
▁Min	-1077
weise	-1078
cted	-1079
urs	-1080
▁kon	-1081
lear	-1082
▁gl	-1083
ever	-1084
oint	-1085
▁wo	-1086
▁nat	-1087
alen	-1088
ote	-1089
▁ange	-1090
fort	-1091
zug	-1092
ath	-1093
▁get	-1094
omp	-1095
ält	-1096
öglich	-1097
▁lie	-1098
▁Ä	-1099
▁rem	-1100
ough	-1101
ality	-1102
▁where	-1103
weit	-1104
▁Europa	-1105
ount	-1106
dit	-1107
▁vers	-1108
laub	-1109
ischer	-1110
achen	-1111
▁end	-1112
rä	-1113
uring	-1114
ituation	-1115
▁Intern	-1116
▁years	-1117
▁two	-1118
nis	-1119
▁fo	-1120
▁'	-1121
ganis	-1122
▁fü	-1123
amil	-1124
urn	-1125
▁room	-1126
▁great	-1127
▁information	-1128
ium	-1129
▁av	-1130
▁even	-1131
▁einz	-1132
▁Fin	-1133
▁199	-1134
ina	-1135
▁Zusammen	-1136
lä	-1137
▁Welt	-1138
▁min	-1139
▁beste	-1140
▁Unternehmen	-1141
▁made	-1142
les	-1143
▁good	-1144
▁conc	-1145
▁Mitgliedstaaten	-1146
fin	-1147
▁every	-1148
rag	-1149
▁All	-1150
▁par	-1151
▁system	-1152
▁Frau	-1153
▁those	-1154
▁through	-1155
▁iss	-1156
ffen	-1157
▁had	-1158
▁way	-1159
▁If	-1160
ession	-1161
▁Fr	-1162
ision	-1163
min	-1164
▁product	-1165
bes	-1166
ister	-1167
rol	-1168
rauch	-1169
unkt	-1170
hör	-1171
▁Ex	-1172
leg	-1173
..	-1174
icherheit	-1175
ower	-1176
▁dam	-1177
▁policy	-1178
▁hand	-1179
▁see	-1180
▁Am	-1181
▁sc	-1182
stand	-1183
cept	-1184
ument	-1185
▁find	-1186
schließ	-1187
▁7	-1188
▁Vorsch	-1189
▁wür	-1190
▁Ha	-1191
uer	-1192
▁may	-1193
ows	-1194
ful	-1195
▁Diese	-1196
ondere	-1197
ktiv	-1198
▁10	-1199
itä	-1200
ändern	-1201
nahmen	-1202
elf	-1203
▁Ste	-1204
day	-1205
▁Haus	-1206
urr	-1207
unity	-1208
▁order	-1209
aher	-1210
ionen	-1211
ool	-1212
▁tak	-1213
▁immer	-1214
uman	-1215
adt	-1216
▁su	-1217
ited	-1218
▁son	-1219
▁zwe	-1220
▁disc	-1221
ace	-1222
ster	-1223
▁direct	-1224
▁habe	-1225
air	-1226
▁right	-1227
▁belie	-1228
ereich	-1229
ws	-1230
▁ke	-1231
▁being	-1232
▁Wh	-1233
▁fact	-1234
schieden	-1235
vor	-1236
▁long	-1237
▁8	-1238
▁ac	-1239
ierte	-1240
ior	-1241
istr	-1242
▁weiter	-1243
ivers	-1244
elle	-1245
▁On	-1246
▁diesen	-1247
aur	-1248
▁num	-1249
get	-1250
▁Information	-1251
isen	-1252
▁appro	-1253
com	-1254
ital	-1255
ys	-1256
▁particular	-1257
▁sowie	-1258
zeich	-1259
▁There	-1260
bst	-1261
hne	-1262
kommen	-1263
lag	-1264
▁seine	-1265
rif	-1266
osten	-1267
▁bietet	-1268
▁differ	-1269
000	-1270
öffent	-1271
▁own	-1272
▁includ	-1273
▁wichtig	-1274
▁rest	-1275
▁beg	-1276
▁mon	-1277
▁unserer	-1278
▁resp	-1279
▁At	-1280
read	-1281
▁process	-1282
isse	-1283
chts	-1284
▁9	-1285
fern	-1286
▁“	-1287
trag	-1288
▁Gro	-1289
▁andere	-1290
▁car	-1291
eration	-1292
old	-1293
lick	-1294
▁mein	-1295
▁Ihnen	-1296
▁know	-1297
mal	-1298
itt	-1299
stitution	-1300
ouse	-1301
▁cent	-1302
gest	-1303
▁Her	-1304
iness	-1305
▁denen	-1306
▁sollte	-1307
piel	-1308
tegr	-1309
▁quest	-1310
gend	-1311
▁Seit	-1312
nung	-1313
▁agre	-1314
besondere	-1315
ährend	-1316
▁Bereich	-1317
▁main	-1318
▁Zu	-1319
▁Inter	-1320
atter	-1321
upt	-1322
▁sollten	-1323
▁political	-1324
▁kein	-1325
▁Än	-1326
▁„	-1327
▁Con	-1328
▁neue	-1329
▁bus	-1330
▁deb	-1331
▁bu	-1332
▁area	-1333
aut	-1334
▁ide	-1335
llung	-1336
▁ph	-1337
▁Bar	-1338
gesch	-1339
eld	-1340
tem	-1341
10	-1342
gramm	-1343
▁Gem	-1344
▁incre	-1345
▁del	-1346
▁Teil	-1347
▁fest	-1348
▁Ind	-1349
round	-1350
▁hier	-1351
▁Maß	-1352
▁after	-1353
ierten	-1354
▁Europäische	-1355
▁here	-1356
▁public	-1357
schafts	-1358
ests	-1359
▁cour	-1360
▁Änder	-1361
ince	-1362
ix	-1363
eth	-1364
ler	-1365
fach	-1366
ines	-1367
alk	-1368
▁ger	-1369
▁Hand	-1370
ply	-1371
eins	-1372
▁comple	-1373
▁gesch	-1374
hin	-1375
▁stand	-1376
▁sm	-1377
▁ausge	-1378
▁Jahren	-1379
▁economic	-1380
▁You	-1381
▁concern	-1382
ationen	-1383
▁prote	-1384
ently	-1385
▁möglich	-1386
▁Leben	-1387
▁unterstütz	-1388
▁same	-1389
ähl	-1390
▁could	-1391
▁possible	-1392
▁clear	-1393
ax	-1394
▁Br	-1395
pre	-1396
under	-1397
halb	-1398
▁human	-1399
▁form	-1400
ved	-1401
▁Rat	-1402
▁place	-1403
▁sim	-1404
iron	-1405
▁Pre	-1406
▁Person	-1407
eral	-1408
ock	-1409
▁viele	-1410
ustr	-1411
▁mich	-1412
▁finden	-1413
▁curr	-1414
▁contin	-1415
az	-1416
▁ser	-1417
...	-1418
ata	-1419
ade	-1420
▁wen	-1421
▁person	-1422
▁Informationen	-1423
raft	-1424
▁effect	-1425
ants	-1426
plic	-1427
▁development	-1428
▁want	-1429
▁say	-1430
isk	-1431
▁number	-1432
ätz	-1433
▁Geb	-1434
▁daher	-1435
▁does	-1436
hip	-1437
elbst	-1438
▁Bezug	-1439
▁prof	-1440
▁Fran	-1441
▁Wie	-1442
ohl	-1443
net	-1444
▁glob	-1445
▁verschieden	-1446
ruck	-1447
▁Sicherheit	-1448
wort	-1449
▁real	-1450
▁hist	-1451
▁insbesondere	-1452
▁letz	-1453
ics	-1454
▁then	-1455
ertain	-1456
▁dr	-1457
öß	-1458
▁lang	-1459
ußer	-1460
iti	-1461
line	-1462
▁15	-1463
▁zwei	-1464
gem	-1465
▁exam	-1466
▁within	-1467
▁sondern	-1468
▁rights	-1469
▁against	-1470
▁Is	-1471
lish	-1472
▁Sta	-1473
▁region	-1474
▁Schl	-1475
▁offer	-1476
zus	-1477
füg	-1478
tens	-1479
▁much	-1480
bsite	-1481
reichen	-1482
▁fund	-1483
▁both	-1484
utions	-1485
äng	-1486
▁[	-1487
eng	-1488
▁Fre	-1489
icult	-1490
▁fun	-1491
ftware	-1492
▁pra	-1493
▁europäischen	-1494
▁avail	-1495
äre	-1496
agement	-1497
▁sign	-1498
▁neuen	-1499
▁val	-1500
▁med	-1501
richt	-1502
ragen	-1503
gab	-1504
▁used	-1505
▁therefore	-1506
▁level	-1507
▁country	-1508
ds	-1509
ploy	-1510
ife	-1511
zahl	-1512
uchen	-1513
wert	-1514
dem	-1515
▁finan	-1516
▁cr	-1517
▁How	-1518
ichte	-1519
▁einige	-1520
▁vis	-1521
ven	-1522
▁est	-1523
äm	-1524
▁var	-1525
▁Verein	-1526
▁Aut	-1527
▁eigen	-1528
▁bring	-1529
viron	-1530
kun	-1531
stru	-1532
▁govern	-1533
▁equ	-1534
licher	-1535
▁erste	-1536
ffe	-1537
▁Arbeits	-1538
▁Bes	-1539
▁social	-1540
org	-1541
ustom	-1542
▁ohne	-1543
ically	-1544
▁priv	-1545
satz	-1546
▁verw	-1547
▁Germ	-1548
▁Mus	-1549
mittel	-1550
▁Richt	-1551
▁help	-1552
▁Vers	-1553
öglichkeit	-1554
▁exp	-1555
▁Str	-1556
urg	-1557
ders	-1558
ulation	-1559
▁full	-1560
ha	-1561
▁wel	-1562
▁provid	-1563
▁play	-1564
its	-1565
estellt	-1566
▁Mon	-1567
yp	-1568
etzen	-1569
▁könn	-1570
▁damit	-1571
ielen	-1572
ittee	-1573
▁12	-1574
oren	-1575
ux	-1576
▁group	-1577
▁still	-1578
▁wieder	-1579
vironment	-1580
▁without	-1581
hält	-1582
work	-1583
▁exper	-1584
▁18	-1585
▁point	-1586
over	-1587
▁meas	-1588
zen	-1589
▁adv	-1590
▁sur	-1591
▁bre	-1592
cur	-1593
▁Entwicklung	-1594
way	-1595
ivid	-1596
que	-1597
▁bereits	-1598
ritt	-1599
▁Kl	-1600
▁view	-1601
▁Part	-1602
ins	-1603
lagen	-1604
▁jetzt	-1605
▁ens	-1606
▁Fe	-1607
ize	-1608
▁ihrer	-1609
iver	-1610
entral	-1611
▁Des	-1612
▁consider	-1613
▁Bet	-1614
ismus	-1615
▁Them	-1616
▁Gen	-1617
▁cap	-1618
▁oper	-1619
erung	-1620
ists	-1621
unter	-1622
amp	-1623
gar	-1624
▁think	-1625
▁different	-1626
schuss	-1627
▁services	-1628
ständ	-1629
ller	-1630
ness	-1631
erk	-1632
ienst	-1633
▁Stand	-1634
▁kle	-1635
man	-1636
rechen	-1637
uten	-1638
▁gleich	-1639
une	-1640
hol	-1641
esse	-1642
▁seiner	-1643
ktur	-1644
▁kl	-1645
ets	-1646
▁ze	-1647
▁last	-1648
ars	-1649
lage	-1650
hor	-1651
ep	-1652
▁Wor	-1653
alth	-1654
▁erhalten	-1655
▁access	-1656
▁spec	-1657
res	-1658
ER	-1659
▁But	-1660
uture	-1661
ollow	-1662
▁able	-1663
▁einfach	-1664
▁größ	-1665
los	-1666
ude	-1667
vers	-1668
▁Maßnahmen	-1669
yn	-1670
ystems	-1671
▁require	-1672
▁Man	-1673
▁Kommiss	-1674
▁pres	-1675
▁würde	-1676
▁Kont	-1677
▁bo	-1678
▁sicher	-1679
▁att	-1680
▁Daten	-1681
kehr	-1682
ispiel	-1683
ready	-1684
▁hal	-1685
aking	-1686
▁erforder	-1687
▁zusammen	-1688
alls	-1689
ibility	-1690
ability	-1691
▁back	-1692
▁heute	-1693
atur	-1694
zept	-1695
press	-1696
üh	-1697
urther	-1698
▁zurück	-1699
loss	-1700
part	-1701
scheid	-1702
▁Russ	-1703
kten	-1704
▁available	-1705
▁Hin	-1706
aff	-1707
▁down	-1708
▁prin	-1709
▁opt	-1710
▁free	-1711
▁gemeins	-1712
so	-1713
ised	-1714
ende	-1715
grund	-1716
ward	-1717
▁business	-1718
▁darauf	-1719
▁Zimmer	-1720
▁Dem	-1721
▁Tra	-1722
ience	-1723
▁future	-1724
▁already	-1725
▁mod	-1726
▁Finanz	-1727
▁etw	-1728
▁special	-1729
äß	-1730
▁ganz	-1731
▁before	-1732
▁0	-1733
lichkeit	-1734
führt	-1735
tend	-1736
politik	-1737
ting	-1738
ym	-1739
▁believe	-1740
▁unseren	-1741
▁pers	-1742
ctor	-1743
nahme	-1744
▁Herrn	-1745
fahren	-1746
▁custom	-1747
▁waren	-1748
imin	-1749
▁bin	-1750
▁cor	-1751
▁That	-1752
omen	-1753
▁look	-1754
▁small	-1755
▁today	-1756
amm	-1757
▁Ro	-1758
▁voll	-1759
▁entw	-1760
▁gut	-1761
▁Stadt	-1762
cond	-1763
▁gest	-1764
jor	-1765
ron	-1766
vention	-1767
▁inst	-1768
ctions	-1769
ichten	-1770
▁machen	-1771
äh	-1772
▁eing	-1773
iele	-1774
▁meine	-1775
▁course	-1776
co	-1777
ased	-1778
annt	-1779
ervice	-1780
ante	-1781
▁project	-1782
ves	-1783
immt	-1784
olution	-1785
folg	-1786
▁And	-1787
ürger	-1788
▁open	-1789
aterial	-1790
▁Deb	-1791
okrat	-1792
ica	-1793
▁während	-1794
▁&	-1795
ving	-1796
▁cann	-1797
▁Geschä	-1798
▁too	-1799
▁Gemein	-1800
▁erm	-1801
gramme	-1802
▁tun	-1803
▁environment	-1804
itiz	-1805
▁To	-1806
▁set	-1807
▁air	-1808
▁möchten	-1809
war	-1810
▁Ihr	-1811
▁Lage	-1812
nisse	-1813
▁products	-1814
come	-1815
▁bek	-1816
▁mus	-1817
▁allen	-1818
▁respons	-1819
curity	-1820
▁Amer	-1821
welt	-1822
▁Med	-1823
indet	-1824
▁liegt	-1825
▁redu	-1826
▁integr	-1827
EN	-1828
▁cannot	-1829
▁invest	-1830
▁Uns	-1831
other	-1832
▁Kunden	-1833
ma	-1834
▁Frage	-1835
▁certain	-1836
▁design	-1837
▁data	-1838
klär	-1839
▁int	-1840
ren	-1841
ately	-1842
▁financial	-1843
▁Energ	-1844
ums	-1845
chie	-1846
▁geb	-1847
▁follow	-1848
akt	-1849
ache	-1850
▁case	-1851
▁fl	-1852
kunft	-1853
ites	-1854
▁Ö	-1855
▁selbst	-1856
iber	-1857
▁sagen	-1858
udget	-1859
▁Pol	-1860
▁service	-1861
olid	-1862
iving	-1863
fts	-1864
▁Eine	-1865
▁neg	-1866
▁imple	-1867
▁fac	-1868
ilit	-1869
▁impro	-1870
▁put	-1871
antwort	-1872
▁question	-1873
▁regard	-1874
cr	-1875
ccess	-1876
ually	-1877
▁change	-1878
ander	-1879
mar	-1880
orn	-1881
▁prom	-1882
▁Möglichkeit	-1883
lease	-1884
wendet	-1885
amer	-1886
▁sozial	-1887
▁Mein	-1888
▁ihren	-1889
▁|	-1890
▁Commissioner	-1891
▁Trans	-1892
▁eas	-1893
nov	-1894
ator	-1895
▁far	-1896
ahn	-1897
▁individ	-1898
▁Kin	-1899
▁reas	-1900
illion	-1901
▁entfern	-1902
lex	-1903
ential	-1904
▁offers	-1905
▁Em	-1906
▁citiz	-1907
cing	-1908
lossen	-1909
▁gel	-1910
tain	-1911
itäten	-1912
imes	-1913
▁repr	-1914
▁Eng	-1915
▁posit	-1916
▁ter	-1917
▁groß	-1918
eut	-1919
heiten	-1920
▁during	-1921
ktionen	-1922
ogra	-1923
▁Tr	-1924
gress	-1925
▁example	-1926
red	-1927
▁rev	-1928
▁Rest	-1929
gew	-1930
▁2009	-1931
▁öffent	-1932
▁achie	-1933
▁art	-1934
affen	-1935
▁pass	-1936
▁Gesch	-1937
ather	-1938
▁Sh	-1939
▁energ	-1940
▁activ	-1941
▁large	-1942
▁problem	-1943
ierungs	-1944
▁strateg	-1945
handl	-1946
▁Fall	-1947
▁eng	-1948
reib	-1949
▁means	-1950
▁said	-1951
▁major	-1952
▁kom	-1953
sel	-1954
▁Kommissar	-1955
zess	-1956
ucht	-1957
▁glaub	-1958
leist	-1959
▁member	-1960
inen	-1961
▁gef	-1962
▁cost	-1963
▁issue	-1964
reit	-1965
ilt	-1966
▁technolog	-1967
▁ben	-1968
▁stat	-1969
ünd	-1970
chnolog	-1971
ove	-1972
▁proposal	-1973
licht	-1974
▁Pal	-1975
▁entfernt	-1976
halts	-1977
▁saf	-1978
▁besch	-1979
▁Proble	-1980
▁since	-1981
▁Unterstütz	-1982
innen	-1983
▁day	-1984
▁ref	-1985
▁Internet	-1986
öl	-1987
ungsant	-1988
isierung	-1989
▁city	-1990
ether	-1991
▁ask	-1992
▁seit	-1993
▁Go	-1994
▁Dar	-1995
ways	-1996
ized	-1997
▁meet	-1998
▁Ger	-1999
▁debate	-2000
ash	-2001
▁Bo	-2002
zeug	-2003
vent	-2004
▁wissen	-2005
ürlich	-2006
▁Res	-2007
▁Mittel	-2008
ird	-2009
▁Ph	-2010
▁applic	-2011
ervor	-2012
operation	-2013
▁necess	-2014
▁situation	-2015
▁quality	-2016
▁China	-2017
▁einge	-2018
ified	-2019
▁Gew	-2020
▁Politik	-2021
utes	-2022
▁contr	-2023
▁modern	-2024
ule	-2025
▁rap	-2026
▁power	-2027
▁ihr	-2028
ichter	-2029
omat	-2030
allen	-2031
▁child	-2032
▁famil	-2033
ahmen	-2034
20	-2035
▁histor	-2036
▁organis	-2037
▁present	-2038
bed	-2039
▁With	-2040
oten	-2041
▁However	-2042
ald	-2043
▁adop	-2044
br	-2045
▁common	-2046
▁Best	-2047
atte	-2048
▁Ad	-2049
▁including	-2050
fs	-2051
etzung	-2052
▁Rechts	-2053
▁weil	-2054
▁amend	-2055
▁Stra	-2056
igten	-2057
▁30	-2058
isl	-2059
▁umf	-2060
▁each	-2061
▁grow	-2062
▁citizens	-2063
▁wirtschaft	-2064
▁compet	-2065
punkt	-2066
▁Bedeut	-2067
wendung	-2068
▁conf	-2069
▁Länder	-2070
aurant	-2071
▁Our	-2072
glichen	-2073
ablish	-2074
▁hervor	-2075
▁Committee	-2076
igkeiten	-2077
ogen	-2078
esell	-2079
▁global	-2080
▁dann	-2081
▁Bedeutung	-2082
▁bede	-2083
prü	-2084
▁som	-2085
▁fol	-2086
ode	-2087
ination	-2088
▁colle	-2089
▁Unterstützung	-2090
▁el	-2091
▁führen	-2092
ilities	-2093
orth	-2094
genommen	-2095
▁schw	-2096
sto	-2097
eich	-2098
▁Vorschlag	-2099
▁allow	-2100
▁entwick	-2101
▁author	-2102
▁three	-2103
gre	-2104
rop	-2105
ohn	-2106
ining	-2107
ains	-2108
▁measures	-2109
▁democ	-2110
▁Entscheid	-2111
▁Qu	-2112
bewer	-2113
orm	-2114
▁result	-2115
▁besteht	-2116
▁areas	-2117
▁gra	-2118
▁object	-2119
ahre	-2120
anken	-2121
▁found	-2122
▁fra	-2123
▁respect	-2124
▁Zusammenarbeit	-2125
▁energy	-2126
anden	-2127
▁Spe	-2128
uter	-2129
▁next	-2130
▁br	-2131
▁ensure	-2132
▁stud	-2133
▁Problem	-2134
▁gesam	-2135
ands	-2136
▁Rahmen	-2137
▁cult	-2138
▁Ziel	-2139
▁few	-2140
▁bieten	-2141
▁further	-2142
▁befindet	-2143
▁give	-2144
▁det	-2145
▁Ur	-2146
▁ä	-2147
rän	-2148
▁dra	-2149
▁rooms	-2150
▁provide	-2151
ty	-2152
▁success	-2153
linie	-2154
▁employ	-2155
▁discuss	-2156
▁agreement	-2157
▁rece	-2158
▁Parlaments	-2159
▁mir	-2160
▁Bürger	-2161
pend	-2162
schaften	-2163
häng	-2164
iß	-2165
▁Lin	-2166
▁War	-2167
▁control	-2168
▁taken	-2169
▁hinaus	-2170
▁che	-2171
haf	-2172
▁tradition	-2173
iend	-2174
▁thank	-2175
zentr	-2176
▁Dienst	-2177
▁etwas	-2178
legt	-2179
▁Bild	-2180
cken	-2181
▁drei	-2182
▁Haupt	-2183
▁Qual	-2184
▁Zug	-2185
▁begr	-2186
ek	-2187
▁geben	-2188
1.	-2189
ettbewer	-2190
gangen	-2191
▁addition	-2192
opp	-2193
▁establish	-2194
ases	-2195
▁sehen	-2196
▁ersten	-2197
agt	-2198
▁build	-2199
ipl	-2200
ichts	-2201
trä	-2202
▁Lebens	-2203
umen	-2204
▁dazu	-2205
uge	-2206
▁Ital	-2207
▁Cl	-2208
▁große	-2209
iate	-2210
▁Ob	-2211
▁position	-2212
blems	-2213
utsch	-2214
▁Group	-2215
▁pop	-2216
▁Bl	-2217
▁cal	-2218
▁pay	-2219
▁fil	-2220
AN	-2221
angen	-2222
▁law	-2223
ules	-2224
▁Ben	-2225
igin	-2226
porte	-2227
▁Namen	-2228
▁opport	-2229
afür	-2230
▁25	-2231
▁inde	-2232
▁stay	-2233
itor	-2234
▁Ergeb	-2235
ell	-2236
▁Markt	-2237
▁letzten	-2238
▁erz	-2239
jekt	-2240
▁Regierung	-2241
▁Weise	-2242
▁Recht	-2243
▁sk	-2244
▁Form	-2245
▁Wer	-2246
▁abs	-2247
▁Für	-2248
▁come	-2249
▁Änderungsant	-2250
▁Ihren	-2251
▁inform	-2252
agen	-2253
▁health	-2254
▁problems	-2255
▁Lös	-2256
▁Kom	-2257
joy	-2258
wohl	-2259
ruct	-2260
ordnung	-2261
▁14	-2262
▁Ländern	-2263
▁Umwelt	-2264
esser	-2265
ements	-2266
▁Gl	-2267
ditions	-2268
▁security	-2269
▁ear	-2270
äd	-2271
▁Seite	-2272
immung	-2273
▁EUR	-2274
▁Tag	-2275
▁ret	-2276
▁Situation	-2277
St	-2278
▁necessary	-2279
ising	-2280
▁verwendet	-2281
ises	-2282
▁terr	-2283
▁Fragen	-2284
▁read	-2285
kauf	-2286
ross	-2287
▁X	-2288
lemen	-2289
▁while	-2290
▁key	-2291
▁lead	-2292
▁shall	-2293
▁given	-2294
▁princ	-2295
▁Nä	-2296
▁company	-2297
bo	-2298
med	-2299
▁schne	-2300
▁budget	-2301
geln	-2302
▁unterstützen	-2303
▁Not	-2304
▁why	-2305
▁implement	-2306
ively	-2307
▁klar	-2308
▁Mad	-2309
text	-2310
tellen	-2311
ächlich	-2312
asch	-2313
▁vo	-2314
200	-2315
▁however	-2316
pp	-2317
iety	-2318
ott	-2319
▁pract	-2320
ared	-2321
▁invol	-2322
iste	-2323
▁Region	-2324
▁hope	-2325
▁Thema	-2326
▁16	-2327
▁dafür	-2328
unic	-2329
▁tre	-2330
▁United	-2331
▁second	-2332
▁Vol	-2333
gang	-2334
▁derzeit	-2335
iter	-2336
▁Mill	-2337
ried	-2338
obil	-2339
▁cooperation	-2340
undheit	-2341
gether	-2342
ged	-2343
▁verl	-2344
▁defin	-2345
asser	-2346
ling	-2347
▁did	-2348
▁verschiedenen	-2349
schein	-2350
▁La	-2351
▁bro	-2352
IN	-2353
▁bestimm	-2354
lect	-2355
kungen	-2356
uff	-2357
immen	-2358
wards	-2359
ivil	-2360
AT	-2361
fte	-2362
ingungen	-2363
enten	-2364
▁legisl	-2365
tt	-2366
ikan	-2367
rodu	-2368
ätze	-2369
arten	-2370
ipp	-2371
ES	-2372
▁char	-2373
▁seinen	-2374
schließlich	-2375
▁start	-2376
isation	-2377
▁Sk	-2378
▁Beispiel	-2379
▁Schw	-2380
▁needs	-2381
▁Website	-2382
▁protection	-2383
In	-2384
",	-2385
ilfe	-2386
▁wish	-2387
▁2008	-2388
▁life	-2389
ury	-2390
▁Kr	-2391
aum	-2392
▁refer	-2393
▁17	-2394
▁großen	-2395
▁bl	-2396
stellung	-2397
tschafts	-2398
▁Ausschuss	-2399
zieh	-2400
burg	-2401
▁House	-2402
▁always	-2403
earch	-2404
▁Port	-2405
▁interest	-2406
▁Sw	-2407
eschäft	-2408
stellen	-2409
▁complete	-2410
▁Jahre	-2411
▁könnte	-2412
▁sens	-2413
esen	-2414
lev	-2415
asst	-2416
arch	-2417
▁Geschäfts	-2418
▁verfü	-2419
ritte	-2420
abil	-2421
▁2010	-2422
▁They	-2423
▁System	-2424
▁men	-2425
ielt	-2426
▁mult	-2427
ustrie	-2428
dress	-2429
▁better	-2430
▁akt	-2431
iation	-2432
▁Nähe	-2433
▁Verfüg	-2434
▁indem	-2435
▁vote	-2436
unde	-2437
▁teil	-2438
isches	-2439
ifiz	-2440
▁diff	-2441
by	-2442
▁comb	-2443
▁action	-2444
zuf	-2445
▁writ	-2446
▁Energie	-2447
ctive	-2448
▁Tats	-2449
gemein	-2450
▁Famil	-2451
▁account	-2452
äuf	-2453
▁Red	-2454
▁km	-2455
▁Vertrag	-2456
▁Kinder	-2457
▁Community	-2458
ily	-2459
▁legal	-2460
".	-2461
ialog	-2462
▁Ihrer	-2463
▁consum	-2464
fre	-2465
▁Bel	-2466
▁dav	-2467
▁USA	-2468
▁hatte	-2469
▁located	-2470
klich	-2471
esehen	-2472
▁Bei	-2473
orgen	-2474
ichterst	-2475
▁13	-2476
forderungen	-2477
▁lea	-2478
ielle	-2479
▁ble	-2480
ims	-2481
▁Probleme	-2482
grif	-2483
▁Fort	-2484
▁Beit	-2485
▁reach	-2486
▁statt	-2487
▁Rom	-2488
▁Und	-2489
sequ	-2490
ünst	-2491
▁50	-2492
▁fav	-2493
▁using	-2494
▁ander	-2495
iges	-2496
▁current	-2497
utzen	-2498
▁ir	-2499
▁mov	-2500
▁nie	-2501
▁become	-2502
rieden	-2503
atch	-2504
▁sowohl	-2505
▁less	-2506
ustry	-2507
▁Alle	-2508
iod	-2509
▁def	-2510
▁net	-2511
▁näch	-2512
▁Rei	-2513
erweise	-2514
▁Mal	-2515
▁Tour	-2516
scheiden	-2517
▁based	-2518
▁cho	-2519
clus	-2520
ca	-2521
▁Produkt	-2522
rechte	-2523
▁around	-2524
less	-2525
▁Gu	-2526
▁terms	-2527
▁sing	-2528
vest	-2529
▁What	-2530
▁erreichen	-2531
ify	-2532
▁bel	-2533
pecial	-2534
▁transport	-2535
ikel	-2536
ferenz	-2537
▁whether	-2538
schied	-2539
▁besonder	-2540
▁Mrs	-2541
ique	-2542
▁trade	-2543
öt	-2544
▁working	-2545
▁conne	-2546
▁short	-2547
eder	-2548
▁production	-2549
▁außer	-2550
▁crit	-2551
markt	-2552
▁particularly	-2553
▁zweit	-2554
▁gar	-2555
▁Ko	-2556
▁state	-2557
uments	-2558
▁When	-2559
▁bene	-2560
spr	-2561
▁International	-2562
zustellen	-2563
▁kosten	-2564
▁fiel	-2565
▁Zukunft	-2566
▁stehen	-2567
▁Spiel	-2568
▁Uhr	-2569
▁geht	-2570
ika	-2571
▁another	-2572
▁add	-2573
▁difficult	-2574
▁davon	-2575
bt	-2576
▁together	-2577
astr	-2578
▁individual	-2579
▁enjoy	-2580
▁100	-2581
inden	-2582
anies	-2583
altung	-2584
▁eigenen	-2585
▁1.	-2586
▁These	-2587
▁et	-2588
fra	-2589
▁Was	-2590
▁Service	-2591
urz	-2592
▁hoch	-2593
achten	-2594
ails	-2595
▁hö	-2596
▁research	-2597
▁sl	-2598
▁appe	-2599
▁Tur	-2600
▁24	-2601
▁2007	-2602
▁arbeit	-2603
▁Frauen	-2604
▁Stud	-2605
▁lim	-2606
auer	-2607
ckt	-2608
bene	-2609
ners	-2610
▁Bus	-2611
rache	-2612
▁exce	-2613
▁jeder	-2614
▁(1	-2615
▁Comp	-2616
utzer	-2617
▁extre	-2618
asse	-2619
▁care	-2620
esellschaft	-2621
▁contrib	-2622
▁government	-2623
▁children	-2624
vious	-2625
kon	-2626
▁Zwe	-2627
pecially	-2628
▁clos	-2629
▁non	-2630
▁wäre	-2631
legenheit	-2632
utet	-2633
▁issues	-2634
ON	-2635
▁rapporte	-2636
▁Rolle	-2637
▁vielen	-2638
▁Gä	-2639
use	-2640
▁tax	-2641
ober	-2642
▁natürlich	-2643
▁New	-2644
imate	-2645
akes	-2646
▁erforderlich	-2647
▁ak	-2648
hö	-2649
▁politischen	-2650
▁richt	-2651
▁water	-2652
▁met	-2653
▁dist	-2654
schl	-2655
▁whole	-2656
▁profession	-2657
ategor	-2658
▁near	-2659
▁Au	-2660
▁visit	-2661
▁Ser	-2662
produ	-2663
▁conditions	-2664
▁reason	-2665
▁address	-2666
arante	-2667
▁role	-2668
▁local	-2669
▁benef	-2670
ücksicht	-2671
]]	-2672
ton	-2673
▁wirklich	-2674
▁Schutz	-2675
▁San	-2676
▁Berichterst	-2677
▁je	-2678
▁Durch	-2679
xim	-2680
chan	-2681
▁Wahl	-2682
ames	-2683
ording	-2684
üt	-2685
▁specific	-2686
▁Kü	-2687
▁systems	-2688
▁women	-2689
▁companies	-2690
▁call	-2691
ultur	-2692
row	-2693
achst	-2694
▁Komm	-2695
ished	-2696
▁subject	-2697
gehen	-2698
tember	-2699
▁sector	-2700
▁tour	-2701
▁Weg	-2702
örder	-2703
▁Fahr	-2704
ength	-2705
bau	-2706
▁show	-2707
▁Ende	-2708
racht	-2709
isions	-2710
ots	-2711
▁ihnen	-2712
▁aller	-2713
▁El	-2714
ifen	-2715
▁innov	-2716
▁step	-2717
▁Reihe	-2718
ization	-2719
▁Gegen	-2720
▁effort	-2721
irm	-2722
ölk	-2723
▁industry	-2724
▁Fun	-2725
▁various	-2726
ody	-2727
▁run	-2728
▁wollen	-2729
▁Gesundheit	-2730
▁fish	-2731
▁Wettbewer	-2732
▁entsp	-2733
▁europäische	-2734
▁commit	-2735
▁centre	-2736
▁organ	-2737
veral	-2738
▁guarante	-2739
adies	-2740
▁alles	-2741
▁basis	-2742
führung	-2743
zogen	-2744
ipt	-2745
arn	-2746
▁experience	-2747
plan	-2748
50	-2749
bereich	-2750
iten	-2751
▁Air	-2752
▁Terr	-2753
lands	-2754
zimmer	-2755
▁reform	-2756
▁No	-2757
▁Grup	-2758
▁deut	-2759
iew	-2760
reg	-2761
▁deal	-2762
ably	-2763
▁occ	-2764
▁Mehr	-2765
▁verbess	-2766
▁ann	-2767
itiative	-2768
▁Lie	-2769
▁bew	-2770
esten	-2771
▁fast	-2772
▁members	-2773
riften	-2774
▁Jan	-2775
▁month	-2776
▁matter	-2777
▁especially	-2778
uft	-2779
iken	-2780
aster	-2781
▁Als	-2782
reaty	-2783
ican	-2784
▁denn	-2785
of	-2786
▁Park	-2787
oms	-2788
▁Wirtschafts	-2789
▁third	-2790
üd	-2791
ordin	-2792
bereit	-2793
▁Zahl	-2794
▁book	-2795
▁strong	-2796
▁aufge	-2797
wirtschaft	-2798
ances	-2799
wä	-2800
▁private	-2801
ima	-2802
til	-2803
▁typ	-2804
asing	-2805
load	-2806
arte	-2807
▁done	-2808
▁old	-2809
▁Haushalts	-2810
oney	-2811
heb	-2812
▁Hotels	-2813
▁negot	-2814
ival	-2815
▁pack	-2816
▁prior	-2817
▁Forsch	-2818
▁Darüber	-2819
leistungen	-2820
▁approach	-2821
raucher	-2822
abhäng	-2823
isis	-2824
▁internationalen	-2825
▁though	-2826
ino	-2827
▁nor	-2828
alle	-2829
▁Woch	-2830
AR	-2831
▁Afr	-2832
ived	-2833
▁origin	-2834
▁gent	-2835
▁period	-2836
▁distr	-2837
▁instit	-2838
▁ident	-2839
eg	-2840
▁Europ	-2841
▁create	-2842
thing	-2843
▁Debatte	-2844
▁komm	-2845
▁exist	-2846
▁proced	-2847
assung	-2848
▁Ort	-2849
▁11	-2850
▁million	-2851
iar	-2852
30	-2853
▁personal	-2854
ences	-2855
▁2000	-2856
▁turn	-2857
▁doc	-2858
▁verwenden	-2859
duc	-2860
▁col	-2861
ksam	-2862
▁press	-2863
ety	-2864
▁Ange	-2865
▁[[	-2866
▁gener	-2867
▁among	-2868
druck	-2869
▁really	-2870
▁mot	-2871
▁weniger	-2872
ething	-2873
▁soc	-2874
▁Deutsch	-2875
sk	-2876
gestellt	-2877
▁entscheiden	-2878
▁Herren	-2879
▁job	-2880
▁Ide	-2881
▁Auss	-2882
IT	-2883
▁Besch	-2884
▁deren	-2885
stück	-2886
ides	-2887
iple	-2888
uc	-2889
icient	-2890
▁beaut	-2891
▁daran	-2892
▁top	-2893
▁Verfügung	-2894
rael	-2895
▁Verw	-2896
fäh	-2897
ians	-2898
iol	-2899
▁install	-2900
▁Gleich	-2901
▁represent	-2902
▁stark	-2903
▁enter	-2904
ec	-2905
hang	-2906
met	-2907
ours	-2908
▁inner	-2909
▁bar	-2910
▁sum	-2911
▁tot	-2912
weg	-2913
Pro	-2914
▁weitere	-2915
oor	-2916
llent	-2917
▁German	-2918
jen	-2919
pekt	-2920
iere	-2921
▁perform	-2922
▁decision	-2923
▁friend	-2924
▁regul	-2925
▁Kolle	-2926
▁feat	-2927
▁Aber	-2928
▁struct	-2929
▁itself	-2930
gabe	-2931
aler	-2932
treten	-2933
▁Staaten	-2934
▁resour	-2935
wh	-2936
▁food	-2937
▁Germany	-2938
▁star	-2939
onds	-2940
ktor	-2941
mos	-2942
▁crisis	-2943
▁poin	-2944
▁direkt	-2945
▁least	-2946
ände	-2947
▁lab	-2948
stra	-2949
cen	-2950
▁UN	-2951
ählen	-2952
▁bedeutet	-2953
gleich	-2954
▁Univers	-2955
▁continue	-2956
▁lo	-2957
▁führ	-2958
wahl	-2959
hunder	-2960
gaben	-2961
▁schnell	-2962
▁Geld	-2963
ension	-2964
▁vollständ	-2965
▁close	-2966
▁several	-2967
▁pat	-2968
ults	-2969
▁something	-2970
hnt	-2971
mework	-2972
▁Dieses	-2973
werk	-2974
▁Artikel	-2975
▁single	-2976
▁growth	-2977
▁automat	-2978
▁Technolog	-2979
IS	-2980
▁Bank	-2981
uth	-2982
▁often	-2983
▁favour	-2984
▁general	-2985
▁rapporteur	-2986
alität	-2987
▁Chr	-2988
▁ple	-2989
ittle	-2990
falls	-2991
▁plan	-2992
▁stär	-2993
▁198	-2994
▁begrü	-2995
▁site	-2996
▁progress	-2997
▁Rück	-2998
▁list	-2999
▁comfort	-3000
▁material	-3001
▁abge	-3002
▁making	-3003
bild	-3004
atives	-3005
▁serious	-3006
▁resolution	-3007
weisen	-3008
▁Rep	-3009
▁darüber	-3010
▁accept	-3011
▁relations	-3012
lock	-3013
raum	-3014
räge	-3015
▁programme	-3016
▁Wind	-3017
▁stellen	-3018
▁Organis	-3019
schutz	-3020
▁port	-3021
ification	-3022
itäts	-3023
▁enc	-3024
▁anal	-3025
▁Frank	-3026
▁wahr	-3027
▁prop	-3028
▁World	-3029
cel	-3030
▁beiden	-3031
▁introdu	-3032
ühren	-3033
▁Dire	-3034
▁langu	-3035
▁she	-3036
▁rules	-3037
cher	-3038
▁peace	-3039
▁gentlemen	-3040
ift	-3041
▁following	-3042
weis	-3043
aps	-3044
enzen	-3045
rift	-3046
▁brauch	-3047
▁di	-3048
▁meisten	-3049
▁Invest	-3050
▁page	-3051
let	-3052
hof	-3053
▁Can	-3054
▁Gäste	-3055
▁Richtlinie	-3056
▁Damen	-3057
▁understand	-3058
mäß	-3059
▁dest	-3060
ießen	-3061
▁opin	-3062
oment	-3063
eign	-3064
yr	-3065
iations	-3066
▁beim	-3067
▁Kre	-3068
ativen	-3069
▁Software	-3070
gricult	-3071
▁home	-3072
entrum	-3073
strument	-3074
▁Fol	-3075
▁going	-3076
▁milit	-3077
icial	-3078
▁Da	-3079
▁kind	-3080
olf	-3081
▁National	-3082
▁let	-3083
▁management	-3084
hlen	-3085
▁directive	-3086
▁particip	-3087
▁erst	-3088
kre	-3089
▁Abst	-3090
▁Nov	-3091
roffen	-3092
▁glaube	-3093
▁Produkte	-3094
inter	-3095
▁unserem	-3096
▁ren	-3097
▁text	-3098
▁ant	-3099
▁institutions	-3100
CH	-3101
▁mind	-3102
▁town	-3103
▁Gra	-3104
apan	-3105
ierungen	-3106
▁bekannt	-3107
▁gehör	-3108
thers	-3109
usätz	-3110
outh	-3111
roll	-3112
▁Disk	-3113
▁once	-3114
▁break	-3115
▁Personen	-3116
▁away	-3117
yl	-3118
▁recog	-3119
▁name	-3120
though	-3121
jenigen	-3122
▁Span	-3123
▁forward	-3124
uh	-3125
▁gewähr	-3126
▁finanz	-3127
▁sett	-3128
▁2006	-3129
icle	-3130
▁ans	-3131
▁family	-3132
▁mar	-3133
▁einschließlich	-3134
▁bevor	-3135
zeichnet	-3136
▁express	-3137
▁My	-3138
ünft	-3139
▁towards	-3140
mat	-3141
ai	-3142
▁Sep	-3143
▁kommen	-3144
genden	-3145
abe	-3146
ategie	-3147
▁doub	-3148
oto	-3149
word	-3150
▁contact	-3151
armon	-3152
▁money	-3153
▁inc	-3154
ennt	-3155
▁line	-3156
▁akzept	-3157
▁Partner	-3158
ufen	-3159
hmer	-3160
▁Pe	-3161
▁Berlin	-3162
▁range	-3163
üssel	-3164
ype	-3165
zeitig	-3166
ison	-3167
go	-3168
▁Fortsch	-3169
▁feel	-3170
teilung	-3171
▁increase	-3172
ären	-3173
stell	-3174
▁Fest	-3175
läge	-3176
ission	-3177
▁Jul	-3178
▁things	-3179
▁absol	-3180
pfe	-3181
▁Unsere	-3182
ully	-3183
▁Tre	-3184
▁Met	-3185
▁Ums	-3186
▁gesagt	-3187
ference	-3188
▁unterstützt	-3189
▁welcome	-3190
▁spä	-3191
▁mention	-3192
▁post	-3193
istic	-3194
▁little	-3195
▁price	-3196
ieten	-3197
▁Entwicklungs	-3198
▁communic	-3199
AS	-3200
▁until	-3201
▁bal	-3202
▁Fil	-3203
▁software	-3204
▁Preis	-3205
▁beh	-3206
▁aid	-3207
itionen	-3208
▁welt	-3209
itions	-3210
▁Jahrhunder	-3211
hens	-3212
▁him	-3213
▁Madam	-3214
▁attra	-3215
▁online	-3216
OR	-3217
▁politische	-3218
▁bringen	-3219
▁seem	-3220
mosph	-3221
▁Kosten	-3222
ume	-3223
▁Car	-3224
ager	-3225
liches	-3226
ured	-3227
chs	-3228
inge	-3229
▁Treaty	-3230
-0	-3231
igent	-3232
▁verste	-3233
fect	-3234
ocus	-3235
▁Zugang	-3236
▁opportunity	-3237
▁rather	-3238
▁customers	-3239
uellen	-3240
achs	-3241
ziehen	-3242
▁Verantwort	-3243
▁gute	-3244
▁genau	-3245
▁economy	-3246
▁Natur	-3247
▁extrem	-3248
▁Fü	-3249
▁agree	-3250
han	-3251
▁Demokrat	-3252
▁mach	-3253
idence	-3254
▁Grün	-3255
▁innerhalb	-3256
▁days	-3257
▁bestehen	-3258
▁Rates	-3259
▁Meinung	-3260
▁2.	-3261
▁Do	-3262
▁Cent	-3263
▁excellent	-3264
▁keep	-3265
haus	-3266
▁Ass	-3267
▁Tatsache	-3268
▁Mo	-3269
gebung	-3270
ichtet	-3271
idency	-3272
▁du	-3273
▁apart	-3274
▁Spa	-3275
arbeiten	-3276
▁berücksicht	-3277
▁might	-3278
anges	-3279
▁location	-3280
▁resources	-3281
ünf	-3282
▁besten	-3283
▁Sc	-3284
▁Programm	-3285
ined	-3286
▁hard	-3287
▁Pos	-3288
amt	-3289
▁September	-3290
ency	-3291
letz	-3292
atten	-3293
fast	-3294
▁Fisch	-3295
▁staff	-3296
neten	-3297
▁Früh	-3298
▁Tod	-3299
▁öffentlichen	-3300
▁Kultur	-3301
▁bank	-3302
▁activities	-3303
ales	-3304
▁Ins	-3305
▁erne	-3306
2.	-3307
half	-3308
▁Präsidentin	-3309
▁Son	-3310
▁fair	-3311
DE	-3312
▁ess	-3313
▁hät	-3314
▁app	-3315
ürz	-3316
▁Punkt	-3317
▁partners	-3318
▁Members	-3319
bon	-3320
▁positive	-3321
▁mean	-3322
▁Gar	-3323
▁offen	-3324
▁land	-3325
stadt	-3326
▁nationalen	-3327
▁Kap	-3328
▁tats	-3329
aurants	-3330
ließen	-3331
▁dev	-3332
most	-3333
▁Char	-3334
inz	-3335
▁treat	-3336
▁allem	-3337
▁benöt	-3338
▁try	-3339
wirkungen	-3340
▁signific	-3341
▁educ	-3342
▁Tür	-3343
▁sug	-3344
▁function	-3345
indung	-3346
▁zahl	-3347
▁event	-3348
unehmen	-3349
ächst	-3350
anst	-3351
platz	-3352
▁denke	-3353
chite	-3354
▁eben	-3355
▁elect	-3356
▁beach	-3357
▁State	-3358
▁keinen	-3359
ports	-3360
▁Erfahr	-3361
▁aufgrund	-3362
nehmer	-3363
▁provided	-3364
ograph	-3365
▁yet	-3366
ratic	-3367
▁behalf	-3368
▁il	-3369
▁Fraktion	-3370
▁After	-3371
ysteme	-3372
▁big	-3373
ommend	-3374
ostel	-3375
▁remain	-3376
▁tas	-3377
▁bor	-3378
▁stre	-3379
iesen	-3380
▁Ihrem	-3381
▁Sup	-3382
▁persön	-3383
▁Zusammenhang	-3384
▁quite	-3385
▁fully	-3386
▁contra	-3387
▁ve	-3388
na	-3389
▁include	-3390
▁enthalten	-3391
ona	-3392
▁qual	-3393
▁technology	-3394
isiert	-3395
▁four	-3396
▁aim	-3397
the	-3398
▁Aktiv	-3399
zeigt	-3400
erst	-3401
unds	-3402
äus	-3403
▁mag	-3404
▁Lösung	-3405
igungs	-3406
▁weiterhin	-3407
▁Wirtschaft	-3408
▁Minister	-3409
▁meiner	-3410
▁moder	-3411
▁situ	-3412
▁Israel	-3413
▁admin	-3414
amental	-3415
▁having	-3416
unst	-3417
▁Janu	-3418
▁gegenüber	-3419
pfung	-3420
▁würden	-3421
pflicht	-3422
abel	-3423
gelegt	-3424
▁Gesetz	-3425
▁Austr	-3426
▁check	-3427
ativ	-3428
▁sogar	-3429
illa	-3430
▁verfüg	-3431
enken	-3432
▁Priv	-3433
▁nutzen	-3434
▁201	-3435
▁costs	-3436
▁wichtige	-3437
▁left	-3438
racy	-3439
▁ladies	-3440
▁proposals	-3441
▁jeden	-3442
▁Europas	-3443
uz	-3444
fert	-3445
▁framework	-3446
omin	-3447
▁class	-3448
▁Entschließ	-3449
onen	-3450
side	-3451
-1	-3452
▁Text	-3453
afen	-3454
ops	-3455
wand	-3456
▁amendments	-3457
▁field	-3458
▁Antw	-3459
▁walk	-3460
ül	-3461
▁value	-3462
▁solution	-3463
airs	-3464
▁along	-3465
iben	-3466
▁pur	-3467
iberal	-3468
▁Co	-3469
ideo	-3470
▁others	-3471
▁strength	-3472
OM	-3473
▁Sa	-3474
▁Restaurant	-3475
mb	-3476
frage	-3477
▁transpar	-3478
▁safety	-3479
▁times	-3480
handlungen	-3481
▁Hier	-3482
▁policies	-3483
käm	-3484
▁ern	-3485
▁sw	-3486
▁steht	-3487
▁2005	-3488
▁konn	-3489
▁optim	-3490
▁Ho	-3491
▁risk	-3492
▁viol	-3493
aden	-3494
▁beginn	-3495
▁adopted	-3496
fully	-3497
▁essential	-3498
igr	-3499
▁above	-3500
geord	-3501
▁Per	-3502
▁taking	-3503
ruktur	-3504
rieg	-3505
▁40	-3506
▁One	-3507
▁Gemeinschaft	-3508
wür	-3509
▁versch	-3510
▁Bas	-3511
▁log	-3512
▁Wasser	-3513
erecht	-3514
essour	-3515
▁erfolg	-3516
▁Sub	-3517
▁Design	-3518
▁Grundlage	-3519
▁focus	-3520
stant	-3521
▁einigen	-3522
▁Rechte	-3523
▁rep	-3524
ledge	-3525
komm	-3526
▁Meer	-3527
▁ideal	-3528
▁creat	-3529
▁Viel	-3530
▁freed	-3531
ana	-3532
▁entire	-3533
▁solche	-3534
▁Frei	-3535
▁speak	-3536
▁makes	-3537
reen	-3538
seit	-3539
▁Sozial	-3540
▁Verkehr	-3541
▁Pra	-3542
▁gesamten	-3543
▁möglicherweise	-3544
▁verfügt	-3545
▁zusätz	-3546
▁light	-3547
iful	-3548
▁erheb	-3549
▁tem	-3550
▁Qualität	-3551
vorsch	-3552
gän	-3553
baren	-3554
rolle	-3555
▁flex	-3556
▁ihn	-3557
▁tro	-3558
iers	-3559
▁Mär	-3560
▁opinion	-3561
▁agricult	-3562
▁Auswirkungen	-3563
▁return	-3564
▁pa	-3565
▁wider	-3566
▁schein	-3567
▁called	-3568
reiben	-3569
fang	-3570
iled	-3571
▁aff	-3572
ethod	-3573
za	-3574
verb	-3575
ustain	-3576
▁recommend	-3577
▁legislation	-3578
▁Sol	-3579
▁Projekt	-3580
ption	-3581
▁enthält	-3582
▁charac	-3583
▁never	-3584
▁weltweit	-3585
▁Institution	-3586
aged	-3587
▁hatten	-3588
astru	-3589
sweise	-3590
▁spa	-3591
▁infl	-3592
▁könnten	-3593
▁tool	-3594
▁Just	-3595
hörden	-3596
▁Verwendung	-3597
▁Verbraucher	-3598
▁Schul	-3599
frastru	-3600
▁Wohn	-3601
blick	-3602
▁past	-3603
kr	-3604
▁deliver	-3605
▁schaffen	-3606
▁Deutschland	-3607
▁sure	-3608
ported	-3609
▁week	-3610
▁lin	-3611
▁content	-3612
▁kont	-3613
▁projects	-3614
▁results	-3615
▁erwar	-3616
▁Hilfe	-3617
▁Ansicht	-3618
▁seinem	-3619
▁dort	-3620
▁lok	-3621
cript	-3622
▁easy	-3623
annten	-3624
lean	-3625
▁Dank	-3626
▁mass	-3627
▁Pat	-3628
prochen	-3629
sh	-3630
ators	-3631
▁constru	-3632
▁park	-3633
wär	-3634
vernment	-3635
▁points	-3636
▁gab	-3637
▁werde	-3638
▁attention	-3639
ested	-3640
now	-3641
▁besser	-3642
▁Wachst	-3643
▁simply	-3644
▁application	-3645
gende	-3646
▁provides	-3647
▁zie	-3648
völk	-3649
reicht	-3650
▁Dieser	-3651
bet	-3652
ches	-3653
▁Tat	-3654
▁responsibility	-3655
▁Millionen	-3656
amb	-3657
OS	-3658
drück	-3659
oting	-3660
The	-3661
▁23	-3662
▁standard	-3663
gesetzt	-3664
lung	-3665
▁concerned	-3666
ams	-3667
ufact	-3668
▁sag	-3669
ügen	-3670
▁term	-3671
ception	-3672
▁effective	-3673
▁Bezieh	-3674
▁Aufent	-3675
zif	-3676
linien	-3677
▁young	-3678
▁2004	-3679
▁flo	-3680
istan	-3681
gesehen	-3682
▁Groß	-3683
irc	-3684
▁website	-3685
▁dig	-3686
ändert	-3687
ulture	-3688
hem	-3689
▁erwä	-3690
▁groups	-3691
▁vorgesch	-3692
▁programm	-3693
leben	-3694
▁obwohl	-3695
alten	-3696
▁society	-3697
hing	-3698
schn	-3699
▁verschiedene	-3700
▁Geschichte	-3701
▁challen	-3702
▁institution	-3703
▁appropr	-3704
▁Komp	-3705
▁minutes	-3706
▁industr	-3707
▁importance	-3708
▁increasing	-3709
▁cover	-3710
▁greater	-3711
▁Ap	-3712
▁Apart	-3713
▁due	-3714
leit	-3715
uk	-3716
▁gewährle	-3717
rank	-3718
▁Nor	-3719
ric	-3720
ban	-3721
▁strategy	-3722
▁building	-3723
▁Dok	-3724
▁Ziele	-3725
▁questions	-3726
▁verbunden	-3727
trie	-3728
▁Japan	-3729
▁verbessern	-3730
genda	-3731
äche	-3732
▁rad	-3733
ette	-3734
erien	-3735
▁neues	-3736
▁environmental	-3737
▁Klima	-3738
ients	-3739
▁Hö	-3740
▁context	-3741
▁sprechen	-3742
ding	-3743
▁head	-3744
cal	-3745
laden	-3746
ritten	-3747
▁Kunst	-3748
iff	-3749
ij	-3750
▁schwier	-3751
▁continu	-3752
▁angem	-3753
unächst	-3754
ning	-3755
bare	-3756
mitted	-3757
▁Entscheidung	-3758
▁known	-3759
EL	-3760
ppen	-3761
Mail	-3762
usst	-3763
▁Cas	-3764
öglichen	-3765
▁ermöglich	-3766
▁Ebene	-3767
▁Bü	-3768
EC	-3769
▁Nicht	-3770
▁November	-3771
▁recent	-3772
▁Prozess	-3773
ellen	-3774
▁Far	-3775
nete	-3776
▁gemacht	-3777
▁extra	-3778
▁heart	-3779
▁fort	-3780
▁capital	-3781
unities	-3782
▁demand	-3783
▁Buch	-3784
▁II	-3785
frist	-3786
term	-3787
ube	-3788
fung	-3789
▁einmal	-3790
iner	-3791
▁darin	-3792
▁standards	-3793
▁natural	-3794
ennen	-3795
▁bit	-3796
▁significant	-3797
▁nächsten	-3798
▁send	-3799
▁Minuten	-3800
▁lassen	-3801
▁Plan	-3802
▁method	-3803
▁Kar	-3804
▁principle	-3805
▁Jahres	-3806
▁pot	-3807
bour	-3808
▁Parte	-3809
▁Verantwortung	-3810
fil	-3811
▁hoffe	-3812
▁interess	-3813
▁parl	-3814
tragen	-3815
An	-3816
itive	-3817
▁Besuch	-3818
essourcen	-3819
acy	-3820
▁Abstimmung	-3821
▁Bro	-3822
▁Sal	-3823
▁heraus	-3824
▁erklär	-3825
▁Beschäft	-3826
ingen	-3827
▁holid	-3828
▁central	-3829
ada	-3830
cent	-3831
▁words	-3832
ätzen	-3833
▁Ag	-3834
llig	-3835
▁beautiful	-3836
ließlich	-3837
▁arbeiten	-3838
▁Apr	-3839
▁version	-3840
▁perfect	-3841
▁talk	-3842
▁Sitz	-3843
läss	-3844
ele	-3845
▁sozialen	-3846
▁Brit	-3847
▁Zust	-3848
▁Stat	-3849
▁manufact	-3850
AL	-3851
▁verein	-3852
▁Frühstück	-3853
▁Flug	-3854
▁sea	-3855
▁Tro	-3856
ided	-3857
▁authorities	-3858
▁road	-3859
berg	-3860
▁cla	-3861
▁share	-3862
▁Heraus	-3863
▁Christ	-3864
▁table	-3865
arian	-3866
▁vier	-3867
▁required	-3868
▁reserv	-3869
▁Nord	-3870
teilt	-3871
▁clearly	-3872
voll	-3873
▁brauchen	-3874
lle	-3875
aging	-3876
▁separ	-3877
rach	-3878
▁Op	-3879
pose	-3880
▁bath	-3881
hib	-3882
▁training	-3883
▁total	-3884
▁unver	-3885
▁lar	-3886
▁zeigt	-3887
▁obl	-3888
▁expl	-3889
-,	-3890
▁meeting	-3891
▁besonders	-3892
▁achieve	-3893
bank	-3894
▁Sicherheits	-3895
▁house	-3896
▁Benutzer	-3897
▁quick	-3898
umente	-3899
▁Demokratie	-3900
▁Web	-3901
▁rela	-3902
▁illeg	-3903
ump	-3904
▁Jun	-3905
oph	-3906
▁Vorschläge	-3907
▁prec	-3908
▁197	-3909
▁Dr	-3910
▁erfü	-3911
▁longer	-3912
▁vorgeschlagen	-3913
unkte	-3914
▁Will	-3915
gemeinen	-3916
change	-3917
▁Blick	-3918
▁Öff	-3919
atal	-3920
▁sour	-3921
icro	-3922
▁veröffent	-3923
▁link	-3924
▁Während	-3925
ones	-3926
▁Vereinigten	-3927
iqu	-3928
haltung	-3929
▁May	-3930
▁Erklär	-3931
igur	-3932
▁gehen	-3933
▁Russia	-3934
ugen	-3935
▁ausgest	-3936
▁ihrem	-3937
▁employment	-3938
▁April	-3939
▁according	-3940
▁Mitglieder	-3941
ex	-3942
▁Einz	-3943
elves	-3944
▁neu	-3945
iting	-3946
▁Kön	-3947
▁sustain	-3948
zü	-3949
teilen	-3950
▁Ira	-3951
▁genießen	-3952
▁Windows	-3953
kämpfung	-3954
▁Sl	-3955
▁Personal	-3956
▁för	-3957
▁network	-3958
▁technical	-3959
▁Off	-3960
▁imm	-3961
▁months	-3962
cke	-3963
▁internal	-3964
▁Schluss	-3965
▁Paris	-3966
▁Ris	-3967
▁Struktur	-3968
▁ur	-3969
DS	-3970
lef	-3971
▁2003	-3972
▁interests	-3973
▁aspect	-3974
imme	-3975
▁Einricht	-3976
recht	-3977
unik	-3978
▁fa	-3979
AP	-3980
▁Bem	-3981
▁Kommissarin	-3982
▁learn	-3983
atis	-3984
schluss	-3985
▁arr	-3986
▁First	-3987
ips	-3988
▁proposed	-3989
▁entwickelt	-3990
gency	-3991
▁prevent	-3992
▁foreign	-3993
▁Prot	-3994
▁Mark	-3995
▁civil	-3996
▁solutions	-3997
▁+	-3998
▁music	-3999
äsent	-4000
ari	-4001
▁Außen	-4002
▁Bedingungen	-4003
▁Cont	-4004
▁enough	-4005
▁terror	-4006
▁Such	-4007
▁directly	-4008
▁Druck	-4009
▁distrib	-4010
bl	-4011
▁responsible	-4012
▁Umsetzung	-4013
jekte	-4014
uelle	-4015
▁fundamental	-4016
▁Menschenrechte	-4017
▁lange	-4018
ief	-4019
▁notwend	-4020
ables	-4021
kung	-4022
▁history	-4023
hler	-4024
▁Nutz	-4025
▁maxim	-4026
prozess	-4027
▁maintain	-4028
▁Musik	-4029
▁nature	-4030
▁pages	-4031
onstr	-4032
chter	-4033
▁subs	-4034
▁dür	-4035
▁thems	-4036
▁recogn	-4037
▁currently	-4038
▁macht	-4039
room	-4040
unch	-4041
▁themselves	-4042
▁kurz	-4043
▁nichts	-4044
telle	-4045
▁unterschied	-4046
▁häuf	-4047
▁needed	-4048
▁side	-4049
▁Auswahl	-4050
▁nam	-4051
▁Anzahl	-4052
▁beein	-4053
würd	-4054
▁anges	-4055
▁etc	-4056
▁parties	-4057
▁efforts	-4058
▁leben	-4059
cies	-4060
▁Bre	-4061
▁cultural	-4062
ynam	-4063
orr	-4064
▁regions	-4065
▁requirements	-4066
▁Wieder	-4067
▁Kam	-4068
rimin	-4069
IC	-4070
erous	-4071
▁funktion	-4072
▁don	-4073
▁ermöglicht	-4074
vert	-4075
ench	-4076
▁user	-4077
▁character	-4078
estell	-4079
▁Mitarbeit	-4080
▁Leist	-4081
▁konzentr	-4082
ither	-4083
▁test	-4084
▁democracy	-4085
▁Interesse	-4086
isher	-4087
▁force	-4088
▁assist	-4089
▁low	-4090
▁markets	-4091
igte	-4092
pact	-4093
licken	-4094
▁events	-4095
▁Bitte	-4096
▁oft	-4097
▁happen	-4098
▁fight	-4099
irt	-4100
▁involved	-4101
▁fünf	-4102
dam	-4103
tell	-4104
▁halten	-4105
▁recht	-4106
teid	-4107
▁apply	-4108
orf	-4109
▁verantwort	-4110
▁demokrat	-4111
yle	-4112
▁gemeinsamen	-4113
ama	-4114
ork	-4115
▁competition	-4116
▁Kons	-4117
▁More	-4118
▁Soc	-4119
teile	-4120
▁ago	-4121
isieren	-4122
▁erhö	-4123
ilder	-4124
istischen	-4125
▁Com	-4126
▁caus	-4127
▁relev	-4128
▁äußer	-4129
▁TV	-4130
▁century	-4131
▁mount	-4132
ringen	-4133
▁freedom	-4134
▁umfassen	-4135
▁relax	-4136
date	-4137
▁internationale	-4138
▁jedes	-4139
▁voted	-4140
▁mark	-4141
ooking	-4142
▁implementation	-4143
▁Kollegen	-4144
▁Ergebnis	-4145
stall	-4146
.000	-4147
▁altern	-4148
▁Frieden	-4149
▁Akt	-4150
▁guests	-4151
▁Seiten	-4152
▁vol	-4153
▁Wissen	-4154
▁Steuer	-4155
▁Stre	-4156
▁bleiben	-4157
auber	-4158
position	-4159
▁guarantee	-4160
▁targe	-4161
▁changes	-4162
key	-4163
▁Industrie	-4164
▁Wert	-4165
▁nehmen	-4166
öst	-4167
2,	-4168
▁Staats	-4169
cture	-4170
ült	-4171
▁anim	-4172
▁*	-4173
▁fördern	-4174
obile	-4175
▁protect	-4176
aper	-4177
▁From	-4178
▁Integr	-4179
▁upon	-4180
▁developed	-4181
atory	-4182
ean	-4183
auen	-4184
▁Erfolg	-4185
▁Aug	-4186
attet	-4187
▁kostenlos	-4188
▁minim	-4189
▁Herste	-4190
hes	-4191
▁expect	-4192
▁helfen	-4193
▁Bereichen	-4194
▁Unser	-4195
▁request	-4196
▁tatsächlich	-4197
ired	-4198
▁komple	-4199
ösen	-4200
▁Gesellschaft	-4201
IP	-4202
▁Tages	-4203
▁unabhäng	-4204
rechts	-4205
▁ermöglichen	-4206
▁Ir	-4207
▁By	-4208
▁wesent	-4209
▁Please	-4210
▁developing	-4211
▁Abgeord	-4212
▁live	-4213
ilater	-4214
fall	-4215
▁Schwe	-4216
änger	-4217
dle	-4218
▁item	-4219
lied	-4220
anten	-4221
▁Flugh	-4222
▁South	-4223
▁gilt	-4224
▁Weit	-4225
▁erinn	-4226
▁Online	-4227
▁regulation	-4228
▁extremely	-4229
▁€	-4230
▁farm	-4231
▁education	-4232
▁circ	-4233
immungen	-4234
▁negotiations	-4235
estern	-4236
ichen	-4237
▁sele	-4238
▁prices	-4239
▁France	-4240
ense	-4241
▁states	-4242
elten	-4243
wie	-4244
▁cases	-4245
▁soon	-4246
▁diejenigen	-4247
ave	-4248
▁contain	-4249
▁night	-4250
▁facilities	-4251
▁000	-4252
▁mat	-4253
▁Zentrum	-4254
▁climate	-4255
grup	-4256
▁wunder	-4257
▁Muse	-4258
▁wichtigsten	-4259
▁Ant	-4260
ublik	-4261
▁Kraft	-4262
▁web	-4263
▁prep	-4264
▁danken	-4265
▁Krit	-4266
▁perfe	-4267
▁nun	-4268
▁comes	-4269
tended	-4270
▁verst	-4271
▁analys	-4272
▁regional	-4273
▁corre	-4274
▁prakt	-4275
völkerung	-4276
▁please	-4277
▁befinden	-4278
▁views	-4279
ented	-4280
▁Cour	-4281
▁durchge	-4282
▁Iran	-4283
merksam	-4284
▁previous	-4285
crib	-4286
▁language	-4287
ikt	-4288
entw	-4289
▁mess	-4290
ging	-4291
▁21	-4292
änden	-4293
▁either	-4294
▁Netz	-4295
amous	-4296
ano	-4297
▁Mot	-4298
▁Volks	-4299
TO	-4300
jähr	-4301
▁ändern	-4302
val	-4303
tes	-4304
▁charge	-4305
▁Notwend	-4306
▁Position	-4307
▁kleinen	-4308
▁team	-4309
▁created	-4310
play	-4311
ienen	-4312
reiche	-4313
posed	-4314
ommod	-4315
▁Ansatz	-4316
▁improve	-4317
▁Date	-4318
▁beit	-4319
▁sagte	-4320
▁Nationen	-4321
▁indic	-4322
▁60	-4323
▁gemeinsame	-4324
rieben	-4325
istration	-4326
▁führt	-4327
ilar	-4328
arbeitung	-4329
▁Familien	-4330
▁einzel	-4331
▁wind	-4332
▁Änderungsantrag	-4333
▁Richtung	-4334
▁EC	-4335
▁via	-4336
▁usw	-4337
▁Schritt	-4338
▁lot	-4339
▁cut	-4340
▁Anforderungen	-4341
ällen	-4342
heim	-4343
▁almost	-4344
▁später	-4345
▁Su	-4346
ools	-4347
US	-4348
folgen	-4349
▁thus	-4350
▁Handels	-4351
bol	-4352
haps	-4353
▁beispiel	-4354
indest	-4355
▁kleine	-4356
prise	-4357
▁gesamte	-4358
▁=	-4359
▁true	-4360
ausschuss	-4361
▁French	-4362
lei	-4363
▁erreicht	-4364
▁final	-4365
▁arg	-4366
schließend	-4367
inner	-4368
▁later	-4369
▁democratic	-4370
▁Liste	-4371
▁lack	-4372
phas	-4373
▁Presidency	-4374
int	-4375
gern	-4376
▁hold	-4377
ipped	-4378
▁Wettbewerbs	-4379
oper	-4380
▁übern	-4381
eless	-4382
▁sollen	-4383
ires	-4384
maß	-4385
▁immed	-4386
▁jedem	-4387
erve	-4388
pendent	-4389
urt	-4390
setzung	-4391
▁official	-4392
▁einzig	-4393
▁encour	-4394
▁Einzel	-4395
▁additional	-4396
▁Mont	-4397
ulate	-4398
iable	-4399
ctors	-4400
▁Aktivitäten	-4401
▁moment	-4402
ibr	-4403
nehm	-4404
▁Fuß	-4405
▁Landes	-4406
▁actually	-4407
barkeit	-4408
▁station	-4409
▁Rad	-4410
▁Lond	-4411
▁investment	-4412
▁rate	-4413
zös	-4414
▁gewährleisten	-4415
▁West	-4416
greifen	-4417
üng	-4418
▁Institutionen	-4419
RO	-4420
▁living	-4421
▁:	-4422
▁surround	-4423
▁idea	-4424
▁frü	-4425
▁seen	-4426
60	-4427
▁funds	-4428
▁beispielsweise	-4429
▁bitte	-4430
▁monitor	-4431
kra	-4432
▁rund	-4433
▁American	-4434
▁everything	-4435
▁Standard	-4436
fassung	-4437
▁workers	-4438
▁unique	-4439
▁Nat	-4440
▁Aufenthalt	-4441
▁situated	-4442
lack	-4443
▁AG	-4444
ko	-4445
▁pict	-4446
▁Gelegenheit	-4447
▁Ju	-4448
andid	-4449
▁Auch	-4450
anced	-4451
▁join	-4452
arbeitet	-4453
äum	-4454
▁berü	-4455
▁Notwendigkeit	-4456
▁Antwort	-4457
▁Ele	-4458
▁Regel	-4459
ländern	-4460
▁program	-4461
plätze	-4462
▁spielen	-4463
ommer	-4464
app	-4465
▁Cor	-4466
▁Regionen	-4467
▁disk	-4468
fluss	-4469
▁nah	-4470
eits	-4471
▁Ressourcen	-4472
▁sicherzustellen	-4473
▁receive	-4474
verkehr	-4475
▁1,	-4476
oid	-4477
rieb	-4478
aring	-4479
▁General	-4480
▁knowledge	-4481
▁Ke	-4482
▁clean	-4483
▁held	-4484
▁wide	-4485
hinder	-4486
▁Währ	-4487
▁Sport	-4488
▁Gebä	-4489
▁sym	-4490
▁ihm	-4491
▁stor	-4492
▁univers	-4493
▁normal	-4494
ios	-4495
▁Pf	-4496
iance	-4497
▁Beg	-4498
▁Entschließung	-4499
▁potential	-4500
▁Vertre	-4501
bedingungen	-4502
feld	-4503
▁document	-4504
scheinlich	-4505
▁appropriate	-4506
▁breakfast	-4507
des	-4508
pression	-4509
▁August	-4510
▁impact	-4511
▁included	-4512
stead	-4513
alien	-4514
▁dialog	-4515
stre	-4516
olz	-4517
▁Beziehungen	-4518
▁Fortschritte	-4519
urf	-4520
▁enl	-4521
ester	-4522
mbH	-4523
▁verd	-4524
▁Themen	-4525
▁dürfen	-4526
▁jede	-4527
▁suggest	-4528
▁Terror	-4529
sehen	-4530
▁Nie	-4531
▁majority	-4532
▁eth	-4533
▁27	-4534
▁London	-4535
▁Lis	-4536
aly	-4537
otos	-4538
bei	-4539
▁assoc	-4540
▁contract	-4541
ound	-4542
▁publ	-4543
▁travel	-4544
programm	-4545
ternal	-4546
▁Erweit	-4547
▁procedure	-4548
mitt	-4549
▁bestimmten	-4550
▁accommod	-4551
handlung	-4552
▁grund	-4553
anze	-4554
iko	-4555
▁harmon	-4556
▁Ergebnisse	-4557
bru	-4558
▁profit	-4559
▁America	-4560
▁Dis	-4561
▁type	-4562
mut	-4563
mm	-4564
▁GmbH	-4565
▁North	-4566
▁stop	-4567
▁Bef	-4568
zunehmen	-4569
▁Interessen	-4570
▁Änderungen	-4571
▁Dinge	-4572
va	-4573
▁Portug	-4574
ceed	-4575
ipment	-4576
▁Prior	-4577
▁thing	-4578
▁Hoch	-4579
igration	-4580
▁grundlegen	-4581
▁five	-4582
ental	-4583
▁happ	-4584
▁Luft	-4585
▁häufig	-4586
▁Aff	-4587
▁Süd	-4588
▁Binnen	-4589
▁consequ	-4590
▁Anwendung	-4591
.0	-4592
▁obs	-4593
▁strengthen	-4594
▁imp	-4595
▁gleichzeitig	-4596
▁handelt	-4597
▁Kir	-4598
▁relig	-4599
ungss	-4600
▁einzigart	-4601
▁Russland	-4602
▁Platz	-4603
issions	-4604
▁Verpflicht	-4605
▁outside	-4606
▁restaurant	-4607
▁amb	-4608
atisf	-4609
clud	-4610
▁propert	-4611
▁Gemeinschafts	-4612
▁file	-4613
▁answer	-4614
rab	-4615
▁angeb	-4616
ri	-4617
▁early	-4618
▁schwer	-4619
mitteln	-4620
örderung	-4621
hab	-4622
▁Dec	-4623
ograf	-4624
▁across	-4625
▁enable	-4626
▁designed	-4627
Re	-4628
len	-4629
▁throughout	-4630
▁emphas	-4631
▁bestimmte	-4632
bel	-4633
▁adopt	-4634
▁Wort	-4635
ilen	-4636
▁Pa	-4637
▁doing	-4638
ane	-4639
▁mechan	-4640
präsident	-4641
▁draw	-4642
▁Prof	-4643
▁Bau	-4644
▁certainly	-4645
▁demonstr	-4646
bahn	-4647
▁Pak	-4648
▁mer	-4649
vo	-4650
onom	-4651
bezogen	-4652
▁schrift	-4653
stoff	-4654
▁communication	-4655
iews	-4656
▁Verfahren	-4657
ka	-4658
▁famous	-4659
▁Turkey	-4660
cep	-4661
kei	-4662
▁led	-4663
ender	-4664
▁hon	-4665
öhn	-4666
▁takes	-4667
länder	-4668
▁Män	-4669
▁features	-4670
Ver	-4671
▁vill	-4672
▁scheint	-4673
▁ever	-4674
ox	-4675
cure	-4676
▁suchen	-4677
▁Wel	-4678
▁professional	-4679
haft	-4680
▁Dialog	-4681
ahren	-4682
iens	-4683
▁sofort	-4684
▁Version	-4685
▁Chin	-4686
▁erzielen	-4687
▁Herzen	-4688
▁confl	-4689
▁erneut	-4690
▁customer	-4691
▁works	-4692
▁parts	-4693
▁mehrere	-4694
▁half	-4695
▁High	-4696
▁aktiv	-4697
:00	-4698
AM	-4699
obal	-4700
▁comfortable	-4701
ayer	-4702
▁Diskuss	-4703
affung	-4704
▁Mil	-4705
▁Reise	-4706
ipf	-4707
uell	-4708
▁proper	-4709
.00	-4710
▁forder	-4711
ET	-4712
▁colleag	-4713
▁concerns	-4714
formen	-4715
▁Veranst	-4716
▁zust	-4717
▁existing	-4718
▁ernst	-4719
▁Türkei	-4720
rachten	-4721
▁cop	-4722
folgt	-4723
▁leaders	-4724
▁gestimmt	-4725
▁traditional	-4726
▁behand	-4727
▁exclus	-4728
▁Febru	-4729
▁aud	-4730
▁Raum	-4731
▁looking	-4732
▁gefähr	-4733
iellen	-4734
▁2001	-4735
self	-4736
▁schö	-4737
▁amount	-4738
▁verfügbar	-4739
enk	-4740
▁transl	-4741
statt	-4742
▁dank	-4743
▁Material	-4744
wohn	-4745
▁Verhandlungen	-4746
▁military	-4747
▁space	-4748
ush	-4749
uted	-4750
▁resol	-4751
▁versuchen	-4752
▁1999	-4753
▁Ukra	-4754
wärt	-4755
▁took	-4756
▁users	-4757
rad	-4758
▁record	-4759
iddle	-4760
▁größten	-4761
▁date	-4762
▁Mod	-4763
▁vö	-4764
älle	-4765
cer	-4766
▁Inform	-4767
▁lux	-4768
peten	-4769
▁hours	-4770
▁Pass	-4771
▁Rats	-4772
▁lat	-4773
▁emer	-4774
itness	-4775
ählt	-4776
▁cross	-4777
▁zuf	-4778
lam	-4779
▁model	-4780
▁complex	-4781
▁Entscheidungen	-4782
▁soziale	-4783
esserung	-4784
▁verstehen	-4785
▁Konferenz	-4786
unately	-4787
▁oblig	-4788
▁entwickeln	-4789
ürf	-4790
▁population	-4791
▁fran	-4792
leicht	-4793
ara	-4794
ini	-4795
▁betr	-4796
▁Stabil	-4797
▁Fund	-4798
▁programmes	-4799
▁Reform	-4800
▁wichtigen	-4801
▁parliament	-4802
▁Lux	-4803
▁Mag	-4804
▁Behörden	-4805
▁decisions	-4806
ava	-4807
deut	-4808
▁download	-4809
▁leading	-4810
▁entsprechen	-4811
uren	-4812
▁solid	-4813
▁reasons	-4814
▁Angeb	-4815
quis	-4816
▁Gruppe	-4817
▁)	-4818
ba	-4819
▁community	-4820
hoben	-4821
▁stärk	-4822
▁überw	-4823
▁Court	-4824
AC	-4825
lassen	-4826
▁concerning	-4827
▁ruh	-4828
range	-4829
▁gerade	-4830
▁Zeitpunkt	-4831
▁Urlaub	-4832
▁Government	-4833
geschlossen	-4834
▁IS	-4835
unt	-4836
▁Kos	-4837
▁Let	-4838
▁mentioned	-4839
▁hervorragen	-4840
▁Fischere	-4841
▁Unternehmens	-4842
ernen	-4843
▁Strand	-4844
▁äußerst	-4845
▁Bekämpfung	-4846
alter	-4847
▁höch	-4848
▁ganzen	-4849
▁weiß	-4850
iterran	-4851
▁connection	-4852
▁Strategie	-4853
▁Bad	-4854
▁guest	-4855
pfen	-4856
odell	-4857
ungsver	-4858
▁Selbst	-4859
amera	-4860
uffer	-4861
▁Stad	-4862
▁Acc	-4863
▁Kop	-4864
▁Gree	-4865
▁becom	-4866
arity	-4867
ball	-4868
▁assess	-4869
unternehmen	-4870
orten	-4871
▁fail	-4872
▁aware	-4873
▁nothing	-4874
best	-4875
▁Forschung	-4876
▁search	-4877
▁links	-4878
▁Öffent	-4879
▁Frankreich	-4880
▁completely	-4881
istrat	-4882
▁joint	-4883
▁agreements	-4884
ifft	-4885
▁Möglichkeiten	-4886
▁jobs	-4887
▁related	-4888
ikanischen	-4889
▁80	-4890
griffen	-4891
▁Voraus	-4892
▁writing	-4893
▁although	-4894
▁built	-4895
99	-4896
▁hil	-4897
▁deter	-4898
▁Kle	-4899
wander	-4900
▁Innov	-4901
▁Barcel	-4902
▁hätte	-4903
▁Kontrolle	-4904
▁-,	-4905
▁Beitrag	-4906
▁original	-4907
▁einger	-4908
▁enlarge	-4909
▁committee	-4910
▁card	-4911
▁media	-4912
▁Imm	-4913
ienste	-4914
▁basic	-4915
more	-4916
▁warum	-4917
▁gelten	-4918
▁Fern	-4919
abon	-4920
▁nachhalt	-4921
uclear	-4922
▁wirtschaftliche	-4923
▁PC	-4924
▁governments	-4925
▁durchgeführt	-4926
grat	-4927
itel	-4928
hung	-4929
ills	-4930
Te	-4931
▁advant	-4932
▁Obwohl	-4933
▁game	-4934
atast	-4935
ros	-4936
▁Since	-4937
▁practice	-4938
▁extens	-4939
▁Club	-4940
▁Mor	-4941
▁values	-4942
▁spend	-4943
pite	-4944
▁Zweit	-4945
▁vorh	-4946
▁angenommen	-4947
ützen	-4948
ias	-4949
kennen	-4950
▁ebenfalls	-4951
▁Up	-4952
▁absolute	-4953
fähigkeit	-4954
setz	-4955
▁kulture	-4956
▁objectives	-4957
▁Ober	-4958
▁anzu	-4959
▁poor	-4960
stehen	-4961
▁Erfahrung	-4962
▁einzige	-4963
▁includes	-4964
▁conclus	-4965
▁ähn	-4966
▁culture	-4967
▁zeigen	-4968
▁Leit	-4969
oppel	-4970
esh	-4971
iated	-4972
▁Vereinbar	-4973
▁deta	-4974
▁Wachstum	-4975
▁Erst	-4976
▁allows	-4977
▁Vertrags	-4978
▁established	-4979
una	-4980
▁Jahrhundert	-4981
▁Verbesserung	-4982
▁Vis	-4983
▁consult	-4984
▁Now	-4985
▁warm	-4986
heben	-4987
bsites	-4988
lauf	-4989
▁Krise	-4990
ovo	-4991
▁Programme	-4992
▁tell	-4993
▁Fäh	-4994
▁body	-4995
ico	-4996
▁wenig	-4997
▁CD	-4998
▁vollständig	-4999
ying	-5000
pflich	-5001
▁schle	-5002
▁Schaffung	-5003
sterreich	-5004
▁credit	-5005
zw	-5006
▁Dokument	-5007
▁Wochen	-5008
öffnet	-5009
▁erstellen	-5010
▁move	-5011
vement	-5012
▁Handel	-5013
▁capac	-5014
▁Regierungen	-5015
ological	-5016
▁holiday	-5017
▁Liss	-5018
▁Organisation	-5019
▁IT	-5020
schnitt	-5021
▁computer	-5022
mark	-5023
istische	-5024
▁Pan	-5025
terne	-5026
▁Von	-5027
istet	-5028
▁received	-5029
▁East	-5030
ils	-5031
▁22	-5032
eing	-5033
▁berühm	-5034
▁attack	-5035
▁hinter	-5036
▁broad	-5037
▁Che	-5038
erstellen	-5039
▁ord	-5040
▁commer	-5041
ourn	-5042
▁betra	-5043
führen	-5044
ery	-5045
osen	-5046
▁choice	-5047
pected	-5048
▁erweit	-5049
bung	-5050
liegen	-5051
fragen	-5052
einander	-5053
struments	-5054
▁Bevölkerung	-5055
▁plann	-5056
SE	-5057
▁jud	-5058
▁gehört	-5059
▁goods	-5060
ason	-5061
▁front	-5062
▁vielleicht	-5063
halte	-5064
▁Ze	-5065
▁performance	-5066
▁satisf	-5067
▁initi	-5068
▁geändert	-5069
▁Lissabon	-5070
▁Mehrheit	-5071
▁option	-5072
bre	-5073
utigen	-5074
▁Cons	-5075
▁Funktion	-5076
▁agricultural	-5077
▁fal	-5078
▁See	-5079
▁cam	-5080
▁Woche	-5081
▁purch	-5082
▁seems	-5083
▁Lisbon	-5084
▁pool	-5085
▁regarding	-5086
▁bess	-5087
schw	-5088
▁cru	-5089
▁gestellt	-5090
▁quickly	-5091
▁welche	-5092
▁Ausschusses	-5093
▁Abend	-5094
▁dessen	-5095
wertungen	-5096
fonds	-5097
▁equipment	-5098
▁Angelegenheit	-5099
sitz	-5100
izien	-5101
▁objective	-5102
▁überprü	-5103
▁sense	-5104
▁image	-5105
▁package	-5106
wide	-5107
▁Regeln	-5108
▁hinzu	-5109
richten	-5110
örper	-5111
▁garant	-5112
organis	-5113
▁Einige	-5114
▁face	-5115
lang	-5116
▁party	-5117
▁benefit	-5118
orre	-5119
▁Thank	-5120
aving	-5121
imension	-5122
▁Ausdruck	-5123
undes	-5124
prache	-5125
▁self	-5126
▁transfer	-5127
▁Liefer	-5128
▁English	-5129
lefon	-5130
inzip	-5131
▁applications	-5132
▁Sant	-5133
iples	-5134
▁Beste	-5135
ED	-5136
kn	-5137
nern	-5138
minister	-5139
▁reports	-5140
nungs	-5141
buch	-5142
bie	-5143
zone	-5144
▁simple	-5145
▁Schlüssel	-5146
ps	-5147
ering	-5148
▁bleibt	-5149
▁beteil	-5150
▁Global	-5151
▁treffen	-5152
▁Vertra	-5153
aufen	-5154
▁industrial	-5155
▁Affairs	-5156
▁rat	-5157
iveness	-5158
icles	-5159
▁recently	-5160
oo	-5161
▁below	-5162
▁Here	-5163
▁indeed	-5164
,000	-5165
hindern	-5166
▁Zum	-5167
▁keyword	-5168
ieg	-5169
▁conv	-5170
plies	-5171
▁dom	-5172
wendungen	-5173
▁achieved	-5174
orge	-5175
▁Computer	-5176
▁vict	-5177
▁huge	-5178
▁Hostel	-5179
▁Binnenmarkt	-5180
zer	-5181
ille	-5182
▁Sim	-5183
front	-5184
▁treatment	-5185
▁experien	-5186
▁prim	-5187
▁Mitarbeiter	-5188
▁dre	-5189
▁popular	-5190
▁intens	-5191
▁Barcelona	-5192
▁Sprache	-5193
▁Öffentlichkeit	-5194
onnen	-5195
▁rates	-5196
ierter	-5197
▁initiative	-5198
face	-5199
▁south	-5200
▁sound	-5201
ühungen	-5202
▁higher	-5203
▁wa	-5204
▁gegeben	-5205
▁Bud	-5206
▁Krieg	-5207
mor	-5208
▁files	-5209
▁levels	-5210
otion	-5211
bildung	-5212
▁Of	-5213
▁Abkommen	-5214
setzen	-5215
ensicht	-5216
▁Verordnung	-5217
▁Amend	-5218
▁Central	-5219
▁sun	-5220
iedr	-5221
▁Rel	-5222
gl	-5223
cks	-5224
▁internet	-5225
▁dring	-5226
frei	-5227
emb	-5228
▁ausgestattet	-5229
▁ill	-5230
▁benötigen	-5231
▁angemessen	-5232
ley	-5233
▁note	-5234
▁increased	-5235
▁komfort	-5236
▁exchange	-5237
▁Umgebung	-5238
▁Förderung	-5239
▁neben	-5240
▁Finally	-5241
▁frei	-5242
Pl	-5243
▁beginning	-5244
legenheiten	-5245
▁Arten	-5246
▁block	-5247
stellt	-5248
▁28	-5249
▁Inde	-5250
▁Juni	-5251
▁prob	-5252
atastrop	-5253
▁Wahr	-5254
▁verantwortlich	-5255
▁ständ	-5256
▁erhält	-5257
▁highly	-5258
▁3.	-5259
▁Social	-5260
arf	-5261
▁eigene	-5262
▁attem	-5263
▁contains	-5264
▁center	-5265
▁carry	-5266
▁Fed	-5267
▁Gruppen	-5268
hend	-5269
abei	-5270
▁Dez	-5271
▁Some	-5272
▁integration	-5273
utt	-5274
▁Ess	-5275
lla	-5276
▁verpflich	-5277
▁Mac	-5278
▁successful	-5279
▁unseres	-5280
▁geführt	-5281
▁zweite	-5282
ued	-5283
▁dang	-5284
▁richtig	-5285
eff	-5286
▁spezif	-5287
▁code	-5288
▁engine	-5289
▁Wein	-5290
▁Ere	-5291
▁sex	-5292
▁sei	-5293
onse	-5294
▁König	-5295
▁scient	-5296
▁Lösungen	-5297
▁Gewalt	-5298
▁Kommunik	-5299
rang	-5300
▁dialogue	-5301
industrie	-5302
apt	-5303
▁congrat	-5304
▁City	-5305
spe	-5306
▁wenige	-5307
annte	-5308
▁pleas	-5309
▁whose	-5310
▁erfolgreich	-5311
agn	-5312
▁spr	-5313
▁schön	-5314
erc	-5315
▁correct	-5316
▁wonder	-5317
iot	-5318
gef	-5319
wach	-5320
▁York	-5321
▁erzielt	-5322
urspr	-5323
spruch	-5324
iment	-5325
En	-5326
▁Daher	-5327
ployment	-5328
lace	-5329
eschrän	-5330
fortunately	-5331
▁Team	-5332
▁kürz	-5333
▁comprom	-5334
▁nuclear	-5335
▁June	-5336
aschinen	-5337
mp	-5338
▁everyone	-5339
▁diskut	-5340
▁Bra	-5341
▁Post	-5342
▁archite	-5343
stances	-5344
▁Amster	-5345
▁relevant	-5346
PE	-5347
▁consumers	-5348
▁efficient	-5349
wertung	-5350
äst	-5351
▁aufgenommen	-5352
▁seek	-5353
rachen	-5354
▁bi	-5355
▁Insel	-5356
zub	-5357
▁similar	-5358
▁Lebensmittel	-5359
▁betre	-5360
isp	-5361
▁Don	-5362
▁Ukraine	-5363
▁Macht	-5364
▁Solid	-5365
fordern	-5366
mals	-5367
▁Balk	-5368
▁Erklärung	-5369
▁Konfl	-5370
/200	-5371
▁Get	-5372
▁wahrscheinlich	-5373
▁Arg	-5374
.)	-5375
just	-5376
▁series	-5377
▁500	-5378
▁veh	-5379
öße	-5380
▁Second	-5381
▁Inhalt	-5382
▁französ	-5383
▁supply	-5384
▁coll	-5385
▁presented	-5386
Mit	-5387
upts	-5388
▁agreed	-5389
lant	-5390
wise	-5391
▁oil	-5392
ape	-5393
ania	-5394
gn	-5395
▁carried	-5396
fält	-5397
▁urspr	-5398
▁Straßen	-5399
▁öffentliche	-5400
VD	-5401
nissen	-5402
▁principles	-5403
länd	-5404
▁age	-5405
▁Proz	-5406
umb	-5407
▁kommt	-5408
▁phys	-5409
icien	-5410
okoll	-5411
▁subsid	-5412
iegel	-5413
vorschriften	-5414
▁lik	-5415
▁Unterk	-5416
itable	-5417
▁glauben	-5418
▁Fehler	-5419
▁spezie	-5420
▁Innen	-5421
äss	-5422
▁wichtiger	-5423
▁stage	-5424
▁commitment	-5425
gliche	-5426
▁Lassen	-5427
▁active	-5428
▁dynam	-5429
abor	-5430
▁Les	-5431
▁gleichen	-5432
aint	-5433
anner	-5434
▁influen	-5435
▁Idee	-5436
▁gemäß	-5437
isted	-5438
▁former	-5439
▁perhaps	-5440
▁völlig	-5441
▁Develop	-5442
▁rail	-5443
▁avoid	-5444
ony	-5445
▁196	-5446
ünsch	-5447
▁leicht	-5448
▁Transport	-5449
▁erk	-5450
freund	-5451
▁Install	-5452
mann	-5453
▁jüng	-5454
▁Sil	-5455
▁setzen	-5456
▁Einführung	-5457
IM	-5458
TM	-5459
▁Informations	-5460
lare	-5461
▁miss	-5462
▁Management	-5463
.,	-5464
IL	-5465
▁empf	-5466
40	-5467
utter	-5468
▁Ang	-5469
atic	-5470
▁Bedürf	-5471
▁click	-5472
▁office	-5473
▁großer	-5474
▁Further	-5475
▁ü	-5476
▁Präsidenten	-5477
▁equipped	-5478
action	-5479
▁verurs	-5480
▁Republic	-5481
xis	-5482
▁prot	-5483
▁six	-5484
ören	-5485
▁amendment	-5486
▁Ereign	-5487
usion	-5488
▁Exper	-5489
▁sent	-5490
▁getan	-5491
▁billion	-5492
▁Familie	-5493
▁tw	-5494
letzt	-5495
▁stress	-5496
▁effects	-5497
▁Rot	-5498
▁spir	-5499
▁matters	-5500
▁innovative	-5501
▁freund	-5502
cker	-5503
▁geschlossen	-5504
altungs	-5505
oh	-5506
▁Wohl	-5507
put	-5508
▁Mai	-5509
▁Leg	-5510
▁Aud	-5511
fahrt	-5512
▁heiß	-5513
▁opportunities	-5514
▁news	-5515
▁choose	-5516
▁Erweiterung	-5517
▁anderer	-5518
träge	-5519
▁Lauf	-5520
▁shows	-5521
OL	-5522
▁alten	-5523
annen	-5524
▁Zus	-5525
▁Integration	-5526
▁reviews	-5527
▁reduce	-5528
▁tele	-5529
ufficient	-5530
▁Pers	-5531
▁Mich	-5532
▁commercial	-5533
rought	-5534
▁shown	-5535
▁promote	-5536
▁Sicht	-5537
▁Restaurants	-5538
gene	-5539
▁Debian	-5540
▁obtain	-5541
▁Ans	-5542
▁traff	-5543
▁garden	-5544
▁Vereinten	-5545
▁Nutzung	-5546
▁Zw	-5547
▁asked	-5548
We	-5549
▁Tem	-5550
▁direction	-5551
atell	-5552
▁Therefore	-5553
▁Col	-5554
owers	-5555
▁Okt	-5556
mented	-5557
▁Aufgabe	-5558
▁exc	-5559
▁etwa	-5560
▁Ihres	-5561
▁depend	-5562
▁response	-5563
anzen	-5564
▁Küche	-5565
forderung	-5566
▁elekt	-5567
lös	-5568
▁Party	-5569
ney	-5570
erseits	-5571
adem	-5572
▁Flughafen	-5573
▁Amsterdam	-5574
▁Opt	-5575
▁red	-5576
▁aspects	-5577
▁renov	-5578
▁Net	-5579
▁konnte	-5580
tert	-5581
▁Micro	-5582
▁behind	-5583
fordert	-5584
fläche	-5585
▁divers	-5586
▁remains	-5587
▁death	-5588
where	-5589
jahr	-5590
anischen	-5591
▁Deshalb	-5592
▁brit	-5593
mäßig	-5594
▁Verbindung	-5595
▁sustainable	-5596
▁stra	-5597
▁came	-5598
zeugen	-5599
▁possibility	-5600
ously	-5601
▁Gesundheits	-5602
cret	-5603
kommens	-5604
▁Africa	-5605
mosphäre	-5606
▁Article	-5607
chtz	-5608
lling	-5609
▁meinen	-5610
▁thanks	-5611
▁British	-5612
▁latest	-5613
ored	-5614
aktion	-5615
▁Lat	-5616
▁gebracht	-5617
Ber	-5618
▁Market	-5619
▁Anfang	-5620
▁gesehen	-5621
▁Ham	-5622
▁furn	-5623
1,	-5624
▁Dezember	-5625
▁Ru	-5626
▁external	-5627
▁Medien	-5628
▁Bestimmungen	-5629
▁creation	-5630
ängt	-5631
ature	-5632
▁pros	-5633
▁reached	-5634
▁Ents	-5635
Sch	-5636
lav	-5637
▁pressure	-5638
▁floor	-5639
▁Kan	-5640
▁Prov	-5641
▁Bemühungen	-5642
▁af	-5643
▁spac	-5644
▁considered	-5645
▁Tage	-5646
▁friendly	-5647
▁verfügen	-5648
▁providing	-5649
▁double	-5650
▁26	-5651
▁capacity	-5652
▁Serv	-5653
▁Spain	-5654
arily	-5655
zuführen	-5656
▁speed	-5657
▁kur	-5658
inger	-5659
▁berücksichtigen	-5660
▁2002	-5661
▁decl	-5662
▁added	-5663
uel	-5664
▁Rechn	-5665
iction	-5666
▁Open	-5667
icy	-5668
▁Italy	-5669
▁akzeptieren	-5670
▁300	-5671
lose	-5672
▁Nacht	-5673
▁Oper	-5674
ology	-5675
▁pan	-5676
▁draft	-5677
▁großart	-5678
▁''	-5679
▁Convention	-5680
▁ö	-5681
ught	-5682
ummer	-5683
▁Initiative	-5684
Be	-5685
▁materials	-5686
klus	-5687
agra	-5688
ends	-5689
▁gerne	-5690
▁fordern	-5691
▁Volk	-5692
zufügen	-5693
▁erster	-5694
ilos	-5695
such	-5696
▁Jed	-5697
itting	-5698
▁künft	-5699
▁prepared	-5700
bert	-5701
▁grat	-5702
▁Oktober	-5703
▁befür	-5704
▁Det	-5705
▁Italien	-5706
▁erinnern	-5707
▁Aspe	-5708
view	-5709
RE	-5710
▁Nieder	-5711
▁easily	-5712
▁suffer	-5713
▁criter	-5714
▁meines	-5715
stitute	-5716
▁atmosph	-5717
▁setting	-5718
▁decided	-5719
etary	-5720
▁balance	-5721
▁digital	-5722
5,	-5723
▁summer	-5724
▁actions	-5725
▁Präsidentschaft	-5726
▁cause	-5727
▁niedr	-5728
▁review	-5729
▁guten	-5730
▁Har	-5731
ole	-5732
rehens	-5733
▁coming	-5734
▁eindeut	-5735
rief	-5736
▁ten	-5737
inne	-5738
istics	-5739
ollar	-5740
uffet	-5741
▁Höhe	-5742
▁condu	-5743
▁neigh	-5744
alu	-5745
idel	-5746
drücklich	-5747
▁exhib	-5748
▁betrifft	-5749
▁Preise	-5750
▁Star	-5751
▁x	-5752
▁Eigent	-5753
yd	-5754
ibilities	-5755
▁Komprom	-5756
▁Golf	-5757
ki	-5758
ena	-5759
▁70	-5760
▁Cal	-5761
ften	-5762
roat	-5763
ulgar	-5764
Euro	-5765
fühl	-5766
▁Nur	-5767
▁submitted	-5768
isters	-5769
▁funding	-5770
▁90	-5771
▁prepar	-5772
wind	-5773
imming	-5774
ghan	-5775
▁priority	-5776
▁Juli	-5777
▁bestät	-5778
▁virt	-5779
finden	-5780
ych	-5781
▁Well	-5782
▁rein	-5783
▁condition	-5784
Fra	-5785
▁Business	-5786
quare	-5787
▁berücksichtigt	-5788
▁ign	-5789
▁Punkte	-5790
opping	-5791
▁employe	-5792
▁Enter	-5793
▁hotels	-5794
▁gives	-5795
▁concept	-5796
5%	-5797
▁Western	-5798
▁Stunden	-5799
▁Produktion	-5800
▁Freiheit	-5801
▁globalen	-5802
▁consumer	-5803
▁Beschäftigung	-5804
▁beitragen	-5805
▁Gebiet	-5806
ierenden	-5807
▁Eing	-5808
▁movement	-5809
▁darf	-5810
▁Atmosphäre	-5811
▁enlargement	-5812
▁December	-5813
▁Kosovo	-5814
▁verhindern	-5815
resp	-5816
▁Grenzen	-5817
iately	-5818
▁Kontakt	-5819
räfte	-5820
ournal	-5821
▁announ	-5822
▁neuer	-5823
▁leave	-5824
▁atmosphere	-5825
ood	-5826
ounts	-5827
▁regular	-5828
▁IN	-5829
▁findet	-5830
AD	-5831
▁Di	-5832
▁property	-5833
iker	-5834
▁else	-5835
▁details	-5836
▁WTO	-5837
ennung	-5838
▁darum	-5839
astic	-5840
▁rule	-5841
▁limited	-5842
▁angegeben	-5843
▁Af	-5844
3.	-5845
▁solchen	-5846
oz	-5847
▁describ	-5848
kraft	-5849
creen	-5850
▁Oct	-5851
▁ca	-5852
ID	-5853
▁accommodation	-5854
gült	-5855
estens	-5856
▁erfüllen	-5857
▁places	-5858
stellungen	-5859
▁assistance	-5860
▁appear	-5861
▁woll	-5862
ibil	-5863
chmal	-5864
▁size	-5865
▁natür	-5866
ón	-5867
▁Erw	-5868
▁amer	-5869
▁Kampf	-5870
▁Januar	-5871
▁Instrument	-5872
▁Gebäude	-5873
▁festgelegt	-5874
▁Schließlich	-5875
off	-5876
griff	-5877
schö	-5878
▁Einwander	-5879
ächt	-5880
▁King	-5881
▁closed	-5882
▁deutlich	-5883
gesellschaft	-5884
▁meinem	-5885
izient	-5886
▁display	-5887
▁Neben	-5888
eries	-5889
▁March	-5890
▁forms	-5891
bas	-5892
▁gemeinsam	-5893
ützt	-5894
raten	-5895
5.	-5896
▁jem	-5897
▁Berg	-5898
pir	-5899
▁highl	-5900
▁supported	-5901
▁san	-5902
▁regulations	-5903
▁independent	-5904
iles	-5905
haupt	-5906
▁Linux	-5907
▁brought	-5908
▁creating	-5909
iciency	-5910
▁island	-5911
▁regel	-5912
▁Schweiz	-5913
tent	-5914
Hotel	-5915
▁Booking	-5916
▁offensicht	-5917
ero	-5918
▁ground	-5919
spricht	-5920
iterranean	-5921
▁Allgemeinen	-5922
▁getroffen	-5923
▁außerhalb	-5924
▁Bilder	-5925
utzt	-5926
▁Dan	-5927
▁Hinter	-5928
▁veröffentlicht	-5929
▁sites	-5930
▁green	-5931
▁Bildung	-5932
▁März	-5933
▁discover	-5934
ategorien	-5935
▁Abgeordneten	-5936
iture	-5937
geleg	-5938
▁register	-5939
▁weiteren	-5940
selves	-5941
▁Führ	-5942
▁Miss	-5943
▁stability	-5944
yond	-5945
▁fig	-5946
▁Film	-5947
▁Sym	-5948
PL	-5949
▁stellt	-5950
ategories	-5951
▁ausgew	-5952
race	-5953
▁Pap	-5954
▁super	-5955
▁largest	-5956
▁erstellt	-5957
▁Gründen	-5958
▁repe	-5959
Un	-5960
▁hohen	-5961
▁betroffen	-5962
▁genug	-5963
dom	-5964
▁north	-5965
▁Museum	-5966
rid	-5967
▁administrat	-5968
fun	-5969
▁train	-5970
kont	-5971
merksamkeit	-5972
▁Last	-5973
bus	-5974
etimes	-5975
zehn	-5976
▁partner	-5977
gangenen	-5978
▁Vorschriften	-5979
▁Auto	-5980
▁begrüßen	-5981
▁became	-5982
ergestellt	-5983
▁Änderung	-5984
ader	-5985
kosten	-5986
▁europäischer	-5987
porate	-5988
▁mobile	-5989
▁expla	-5990
▁ways	-5991
▁relationship	-5992
3,	-5993
▁Städ	-5994
▁effe	-5995
▁video	-5996
▁Mio	-5997
rachtens	-5998
▁Erachtens	-5999
▁Ra	-6000
▁mor	-6001
Ar	-6002
▁Dam	-6003
▁west	-6004
▁Aufmerksamkeit	-6005
▁purpose	-6006
▁1998	-6007
▁passen	-6008
▁construction	-6009
▁Bot	-6010
▁Technologie	-6011
▁purs	-6012
▁style	-6013
▁wirks	-6014
▁verme	-6015
▁freue	-6016
ierende	-6017
▁Produktions	-6018
▁discussion	-6019
▁ww	-6020
▁produced	-6021
▁Transpar	-6022
overty	-6023
akter	-6024
NG	-6025
▁29	-6026
▁Metho	-6027
conomic	-6028
▁schriftlich	-6029
▁langfrist	-6030
ugg	-6031
▁schützen	-6032
▁Investitionen	-6033
▁Vielzahl	-6034
bewertungen	-6035
▁www	-6036
▁ganze	-6037
ammlung	-6038
▁instead	-6039
EP	-6040
▁Natürlich	-6041
▁thous	-6042
▁limit	-6043
▁ult	-6044
emin	-6045
▁Italian	-6046
▁herunter	-6047
will	-6048
▁Beginn	-6049
▁wid	-6050
▁message	-6051
ja	-6052
▁Kern	-6053
▁pleased	-6054
itzer	-6055
ivity	-6056
▁obvious	-6057
aren	-6058
▁darunter	-6059
▁err	-6060
▁Log	-6061
falt	-6062
ausch	-6063
▁January	-6064
▁Werk	-6065
▁Today	-6066
staat	-6067
▁!	-6068
▁exec	-6069
ope	-6070
mail	-6071
▁benefits	-6072
▁Techn	-6073
▁halte	-6074
ford	-6075
streng	-6076
ande	-6077
▁angezeigt	-6078
Off	-6079
cle	-6080
▁Aussprache	-6081
▁einges	-6082
▁tä	-6083
'.	-6084
▁Projekte	-6085
▁foot	-6086
pfehl	-6087
▁historischen	-6088
▁Agr	-6089
bin	-6090
▁Wettbewerb	-6091
gründ	-6092
▁ers	-6093
▁liberal	-6094
▁Vorsitz	-6095
osp	-6096
▁Fach	-6097
▁ihres	-6098
rats	-6099
▁que	-6100
▁variety	-6101
▁größte	-6102
▁school	-6103
▁dise	-6104
gesamt	-6105
▁Development	-6106
▁Fällen	-6107
▁stimmen	-6108
▁measure	-6109
▁(2	-6110
▁Democ	-6111
▁conference	-6112
▁determin	-6113
▁Doppel	-6114
▁Sm	-6115
ades	-6116
▁Ed	-6117
▁produce	-6118
▁Landwirtschaft	-6119
uck	-6120
▁accord	-6121
▁leisten	-6122
▁Mart	-6123
▁status	-6124
stag	-6125
▁host	-6126
▁University	-6127
aily	-6128
▁charm	-6129
▁Flü	-6130
▁lic	-6131
▁Bereiche	-6132
▁Forschungs	-6133
ta	-6134
▁los	-6135
▁allowed	-6136
porary	-6137
▁regards	-6138
zeuge	-6139
▁alternative	-6140
lichkeiten	-6141
▁Einrichtungen	-6142
▁Monaten	-6143
▁friends	-6144
▁Bundes	-6145
▁mensch	-6146
▁threat	-6147
▁Berichts	-6148
bor	-6149
gewöhn	-6150
▁Stär	-6151
▁activity	-6152
▁study	-6153
▁konzentrieren	-6154
stein	-6155
▁conflict	-6156
▁verg	-6157
▁Angelegenheiten	-6158
reibung	-6159
▁Viele	-6160
▁schl	-6161
▁damage	-6162
▁versucht	-6163
▁steps	-6164
▁früher	-6165
▁started	-6166
soft	-6167
ronic	-6168
▁Einsatz	-6169
▁interpre	-6170
aktiv	-6171
▁beant	-6172
▁Hinsicht	-6173
▁task	-6174
▁chem	-6175
▁gain	-6176
▁hous	-6177
▁fall	-6178
▁offiz	-6179
▁procedures	-6180
▁Villa	-6181
uls	-6182
▁October	-6183
ünstler	-6184
▁medium	-6185
ingt	-6186
▁Erstens	-6187
▁fishing	-6188
▁Tradition	-6189
ört	-6190
cement	-6191
▁Verl	-6192
▁rich	-6193
▁interesting	-6194
▁Verkehrs	-6195
▁source	-6196
▁Straße	-6197
▁höher	-6198
eden	-6199
gangenheit	-6200
▁Leute	-6201
▁krit	-6202
▁dabei	-6203
FR	-6204
decken	-6205
▁compromise	-6206
gramms	-6207
▁div	-6208
▁Armut	-6209
▁Camp	-6210
mission	-6211
prises	-6212
▁bisher	-6213
▁loss	-6214
▁violence	-6215
▁erwähnt	-6216
die	-6217
▁nice	-6218
▁contribution	-6219
▁lower	-6220
▁board	-6221
▁Saf	-6222
80	-6223
ifik	-6224
▁provisions	-6225
▁Us	-6226
▁Apartments	-6227
ühr	-6228
▁safe	-6229
▁Vergangenheit	-6230
▁Gene	-6231
endes	-6232
▁won	-6233
▁sus	-6234
▁comprehens	-6235
works	-6236
▁herr	-6237
ücken	-6238
▁Meine	-6239
▁unterst	-6240
▁accep	-6241
▁Parteien	-6242
▁Schwier	-6243
▁ut	-6244
▁Loc	-6245
▁Rights	-6246
coming	-6247
▁legislative	-6248
ängen	-6249
schreit	-6250
geber	-6251
äte	-6252
4.	-6253
ishing	-6254
▁Mobil	-6255
▁Anstreng	-6256
▁Sommer	-6257
▁instruments	-6258
izin	-6259
ira	-6260
lass	-6261
▁zusätzliche	-6262
▁Center	-6263
▁launch	-6264
mö	-6265
▁morgen	-6266
▁dut	-6267
▁exact	-6268
▁relation	-6269
▁instrument	-6270
here	-6271
▁compon	-6272
▁?	-6273
dienst	-6274
▁She	-6275
▁bedeuten	-6276
zielle	-6277
▁sport	-6278
▁challenges	-6279
▁eleg	-6280
▁vorhanden	-6281
▁disp	-6282
rü	-6283
▁Überwach	-6284
uis	-6285
▁zweiten	-6286
EM	-6287
▁Republik	-6288
▁4.	-6289
{{	-6290
▁seines	-6291
▁Iraq	-6292
▁verkauf	-6293
▁Ost	-6294
paign	-6295
▁Cost	-6296
▁mis	-6297
chsel	-6298
iete	-6299
ugs	-6300
▁path	-6301
▁giving	-6302
ilden	-6303
▁unem	-6304
▁minor	-6305
▁unters	-6306
▁labour	-6307
▁verring	-6308
uern	-6309
▁Hung	-6310
itude	-6311
▁During	-6312
figur	-6313
▁ourselves	-6314
▁mut	-6315
▁Verteid	-6316
▁criteria	-6317
tag	-6318
▁finally	-6319
▁Solidar	-6320
▁Portugal	-6321
▁sicherlich	-6322
▁statement	-6323
▁Many	-6324
▁Ter	-6325
▁Gipf	-6326
▁Bran	-6327
itial	-6328
▁vertra	-6329
▁gezeigt	-6330
▁agenda	-6331
▁"...	-6332
inal	-6333
▁senden	-6334
ächen	-6335
▁Zentral	-6336
ulieren	-6337
▁Afghan	-6338
▁fell	-6339
▁word	-6340
▁Spanish	-6341
frastruktur	-6342
ixed	-6343
▁CO	-6344
▁besuchen	-6345
▁hochwert	-6346
oking	-6347
▁Ol	-6348
▁Bon	-6349
engen	-6350
▁Ta	-6351
▁poverty	-6352
▁written	-6353
▁prefer	-6354
krise	-6355
▁gas	-6356
▁Every	-6357
▁sechs	-6358
▁Schlaf	-6359
orgung	-6360
12	-6361
▁sicherstellen	-6362
enew	-6363
▁Forder	-6364
ilosoph	-6365
▁Belg	-6366
▁legit	-6367
▁kürzlich	-6368
▁ehem	-6369
▁ergreifen	-6370
see	-6371
otes	-6372
eiten	-6373
zusch	-6374
▁fant	-6375
▁structure	-6376
▁began	-6377
▁Menschenrechts	-6378
ünschen	-6379
▁documents	-6380
▁weak	-6381
▁restaurants	-6382
ifel	-6383
▁infrastru	-6384
▁Trotz	-6385
▁Regierungs	-6386
▁historical	-6387
head	-6388
▁consequences	-6389
▁Flor	-6390
▁operation	-6391
▁einzelnen	-6392
▁firm	-6393
üsse	-6394
irl	-6395
▁jewe	-6396
ST	-6397
penden	-6398
▁1997	-6399
leb	-6400
▁apartment	-6401
▁Transparenz	-6402
▁Zweitens	-6403
▁affect	-6404
▁schwierig	-6405
▁types	-6406
▁Inn	-6407
▁wissenschaft	-6408
▁Systems	-6409
▁cy	-6410
▁reality	-6411
alyse	-6412
▁zunächst	-6413
▁illegal	-6414
rupt	-6415
▁zehn	-6416
▁Zunächst	-6417
▁restr	-6418
▁Spanien	-6419
▁worth	-6420
aft	-6421
▁observ	-6422
urance	-6423
▁pen	-6424
▁Folgen	-6425
▁Je	-6426
kaufs	-6427
▁modernen	-6428
▁Gal	-6429
▁stock	-6430
▁July	-6431
▁Einigung	-6432
▁bewusst	-6433
park	-6434
▁constant	-6435
▁Java	-6436
▁transparency	-6437
oker	-6438
▁Zivil	-6439
house	-6440
unsch	-6441
▁mountain	-6442
▁erör	-6443
▁highest	-6444
obby	-6445
▁DVD	-6446
pool	-6447
▁Funktionen	-6448
4,	-6449
▁immediately	-6450
▁distribution	-6451
▁elections	-6452
▁Grunds	-6453
▁Sign	-6454
▁base	-6455
▁heißt	-6456
▁quiet	-6457
Office	-6458
▁elements	-6459
}}	-6460
▁Mann	-6461
▁behandelt	-6462
▁Kredit	-6463
▁sauber	-6464
prec	-6465
▁beyond	-6466
ground	-6467
és	-6468
▁depart	-6469
hafte	-6470
idge	-6471
▁Organ	-6472
▁evalu	-6473
▁Although	-6474
▁employees	-6475
▁begrüße	-6476
▁beziehen	-6477
chnologie	-6478
▁folgenden	-6479
▁airport	-6480
parte	-6481
▁equal	-6482
▁Empfehl	-6483
auern	-6484
legung	-6485
▁Prem	-6486
▁günst	-6487
▁integrated	-6488
▁Server	-6489
▁crucial	-6490
▁erheblich	-6491
orgt	-6492
▁reag	-6493
▁spirit	-6494
estic	-6495
▁mem	-6496
▁Hinblick	-6497
ya	-6498
altungen	-6499
brit	-6500
▁Linie	-6501
ilateral	-6502
▁got	-6503
maßnahmen	-6504
▁2,	-6505
ehen	-6506
▁bill	-6507
▁Nachbar	-6508
▁consist	-6509
hold	-6510
▁Test	-6511
wa	-6512
▁wiederhol	-6513
OT	-6514
▁applied	-6515
▁Arbeitnehmer	-6516
▁Furthermore	-6517
eks	-6518
▁village	-6519
▁numerous	-6520
▁Adr	-6521
▁beginnen	-6522
▁Mult	-6523
▁Ak	-6524
▁wine	-6525
▁Tagesordnung	-6526
▁film	-6527
ämpfen	-6528
▁Mc	-6529
ples	-6530
affe	-6531
▁Val	-6532
▁humanit	-6533
▁hom	-6534
▁useful	-6535
▁anerk	-6536
▁lokalen	-6537
back	-6538
izienz	-6539
▁Eigen	-6540
▁processes	-6541
ius	-6542
▁anti	-6543
trächt	-6544
gy	-6545
▁Bulgar	-6546
▁forces	-6547
▁nahe	-6548
▁pal	-6549
▁zuvor	-6550
▁ehemal	-6551
asion	-6552
▁gewor	-6553
▁stimme	-6554
▁wan	-6555
▁unbe	-6556
ogle	-6557
▁tools	-6558
▁solidarity	-6559
▁Terrorismus	-6560
leitet	-6561
legation	-6562
▁requires	-6563
vere	-6564
system	-6565
▁section	-6566
▁Id	-6567
▁ursprün	-6568
▁kit	-6569
how	-6570
lim	-6571
▁effizient	-6572
▁bra	-6573
▁verpflichtet	-6574
▁saying	-6575
PS	-6576
▁Islam	-6577
▁campaign	-6578
uptsächlich	-6579
▁stärken	-6580
▁drive	-6581
▁vermeiden	-6582
iligen	-6583
▁Alt	-6584
▁analysis	-6585
▁Gott	-6586
▁undert	-6587
zeugt	-6588
▁Free	-6589
▁late	-6590
▁payment	-6591
▁tim	-6592
▁konnten	-6593
▁round	-6594
▁reading	-6595
▁aufre	-6596
▁John	-6597
▁wobei	-6598
▁coast	-6599
▁wachs	-6600
möglichkeit	-6601
▁erforderlichen	-6602
▁Standards	-6603
IA	-6604
▁Even	-6605
▁distance	-6606
▁trotz	-6607
▁Standpunkt	-6608
abkommen	-6609
▁Neu	-6610
▁Gerichts	-6611
▁gran	-6612
▁teach	-6613
▁growing	-6614
UR	-6615
▁daily	-6616
▁neuesten	-6617
▁echte	-6618
▁worden	-6619
▁richtige	-6620
▁dat	-6621
zwe	-6622
ral	-6623
gewiesen	-6624
anging	-6625
▁verab	-6626
icket	-6627
▁colleagues	-6628
▁Praxis	-6629
hilfe	-6630
▁ideas	-6631
▁Also	-6632
▁select	-6633
ässt	-6634
hesion	-6635
▁Bade	-6636
▁Zeich	-6637
▁sufficient	-6638
▁gele	-6639
schuld	-6640
▁Ven	-6641
▁bald	-6642
▁Bür	-6643
11	-6644
▁mindestens	-6645
dete	-6646
iveau	-6647
▁liegen	-6648
▁erwarten	-6649
cription	-6650
sych	-6651
volle	-6652
polit	-6653
▁Kompromiss	-6654
urb	-6655
▁goes	-6656
▁bad	-6657
▁Your	-6658
strumente	-6659
lemente	-6660
▁export	-6661
▁Jugend	-6662
▁Palest	-6663
wser	-6664
iability	-6665
▁practical	-6666
based	-6667
▁Mediterranean	-6668
▁Koh	-6669
▁paid	-6670
▁offering	-6671
▁Ist	-6672
craft	-6673
ares	-6674
▁lives	-6675
▁letzte	-6676
▁ski	-6677
entur	-6678
▁Mer	-6679
estellten	-6680
▁spee	-6681
▁Finanzierung	-6682
▁Kur	-6683
▁advantage	-6684
▁beru	-6685
▁While	-6686
iertel	-6687
▁oben	-6688
ampag	-6689
▁renew	-6690
▁Grand	-6691
▁italien	-6692
▁persons	-6693
tete	-6694
▁dringend	-6695
züglich	-6696
▁Microsoft	-6697
fass	-6698
▁Tagen	-6699
▁Immobil	-6700
▁gefunden	-6701
▁verstär	-6702
▁Hel	-6703
▁Vertreter	-6704
▁darstellt	-6705
▁5.	-6706
▁offered	-6707
▁norm	-6708
▁Deut	-6709
▁doubt	-6710
▁thought	-6711
▁Bu	-6712
verläss	-6713
no	-6714
ye	-6715
▁conven	-6716
▁kil	-6717
▁plant	-6718
▁Generation	-6719
▁implemented	-6720
cape	-6721
folge	-6722
DF	-6723
nungen	-6724
▁rapid	-6725
▁apartments	-6726
▁Green	-6727
▁Ba	-6728
▁betonen	-6729
▁ehr	-6730
▁vertreten	-6731
▁prü	-6732
▁entspricht	-6733
karte	-6734
▁frequ	-6735
vors	-6736
▁partnership	-6737
6,	-6738
poses	-6739
▁waste	-6740
▁banks	-6741
▁hauptsächlich	-6742
▁sta	-6743
▁Kapital	-6744
orning	-6745
▁organisations	-6746
umm	-6747
▁zwar	-6748
▁Mos	-6749
▁caused	-6750
mlich	-6751
▁tomor	-6752
70	-6753
▁edit	-6754
▁weeks	-6755
▁Anfrage	-6756
▁privaten	-6757
enze	-6758
cts	-6759
omb	-6760
▁Gas	-6761
▁tragen	-6762
rooms	-6763
▁Anstrengungen	-6764
ais	-6765
▁tomorrow	-6766
▁Öl	-6767
utive	-6768
eite	-6769
▁secure	-6770
▁phot	-6771
▁Directive	-6772
▁Initi	-6773
▁reduction	-6774
▁congratulate	-6775
prüfung	-6776
▁beide	-6777
ato	-6778
▁Aspekte	-6779
▁Security	-6780
▁Kauf	-6781
zulegen	-6782
▁happy	-6783
▁minimum	-6784
wenden	-6785
ystemen	-6786
▁abgegeben	-6787
▁ban	-6788
▁separate	-6789
▁Dritt	-6790
▁Archite	-6791
▁efficiency	-6792
▁Pet	-6793
▁Gemeins	-6794
lines	-6795
ente	-6796
▁klein	-6797
▁aktuellen	-6798
▁sales	-6799
▁UK	-6800
ola	-6801
ocol	-6802
▁Chinese	-6803
▁wr	-6804
▁Prü	-6805
▁challenge	-6806
britann	-6807
▁zufrieden	-6808
▁Minder	-6809
▁entscheidender	-6810
▁eingesetzt	-6811
▁eher	-6812
▁Krank	-6813
▁circum	-6814
▁erfordert	-6815
izing	-6816
▁Behandlung	-6817
▁deutschen	-6818
-2	-6819
▁Strateg	-6820
▁comprehensive	-6821
▁Ord	-6822
▁lines	-6823
Fraktion	-6824
▁genommen	-6825
▁har	-6826
▁syn	-6827
▁ziehen	-6828
▁Stock	-6829
▁wählen	-6830
▁Richtlinien	-6831
ula	-6832
▁starting	-6833
▁relating	-6834
▁jun	-6835
▁eindeutig	-6836
▁bur	-6837
▁eingehen	-6838
wan	-6839
▁technologies	-6840
▁transparent	-6841
▁Grie	-6842
▁Austria	-6843
ret	-6844
ohlen	-6845
▁buy	-6846
▁paar	-6847
▁exception	-6848
▁meaning	-6849
▁hinweisen	-6850
▁Nr	-6851
▁ol	-6852
ischem	-6853
▁Human	-6854
▁published	-6855
▁monitoring	-6856
▁Start	-6857
▁angesehen	-6858
itten	-6859
immern	-6860
▁4-	-6861
▁counter	-6862
▁194	-6863
▁urg	-6864
▁Down	-6865
mus	-6866
ritts	-6867
phone	-6868
ulated	-6869
▁zentr	-6870
▁Beteil	-6871
▁Sonder	-6872
▁operating	-6873
bezieh	-6874
▁Bahn	-6875
pective	-6876
sprechen	-6877
▁endgült	-6878
▁erfahren	-6879
▁reference	-6880
standing	-6881
aser	-6882
izes	-6883
ubs	-6884
stitutional	-6885
▁historic	-6886
▁Amendment	-6887
gegen	-6888
▁Großbritann	-6889
hotel	-6890
▁wegen	-6891
ibl	-6892
▁gee	-6893
▁border	-6894
▁Komfort	-6895
▁bitten	-6896
▁freuen	-6897
▁notwendig	-6898
▁Gre	-6899
▁Public	-6900
▁worldwide	-6901
▁nachdem	-6902
▁Vorteile	-6903
▁hear	-6904
▁Altern	-6905
▁extent	-6906
▁reflect	-6907
altet	-6908
▁critic	-6909
▁begin	-6910
▁ful	-6911
▁clients	-6912
▁terrorism	-6913
▁11.	-6914
▁TH	-6915
theless	-6916
verage	-6917
ämlich	-6918
▁Real	-6919
▁hohe	-6920
▁recon	-6921
▁Moreover	-6922
▁Abschluss	-6923
▁slow	-6924
▁ded	-6925
▁uner	-6926
▁perman	-6927
▁arch	-6928
▁frag	-6929
▁zuletzt	-6930
▁accordance	-6931
▁respond	-6932
▁NAT	-6933
zusetzen	-6934
itch	-6935
zeiten	-6936
igation	-6937
▁symbol	-6938
▁mehreren	-6939
▁Schritte	-6940
▁manchmal	-6941
▁erhöhen	-6942
ufe	-6943
▁Mand	-6944
▁Den	-6945
▁Komment	-6946
LA	-6947
▁pie	-6948
▁sectors	-6949
▁nämlich	-6950
▁farmers	-6951
▁sometimes	-6952
▁länd	-6953
zeption	-6954
▁probably	-6955
fälle	-6956
''	-6957
▁Abschließend	-6958
zieren	-6959
▁folgt	-6960
▁Ac	-6961
▁initial	-6962
▁candid	-6963
fo	-6964
▁hätten	-6965
▁Drit	-6966
▁zumindest	-6967
▁sav	-6968
▁Lang	-6969
atform	-6970
▁Sü	-6971
▁pain	-6972
▁chance	-6973
IV	-6974
▁bringt	-6975
▁ris	-6976
ologie	-6977
▁hor	-6978
▁options	-6979
oon	-6980
anlage	-6981
▁Stellen	-6982
▁gehören	-6983
▁anything	-6984
izenz	-6985
▁Zweck	-6986
▁ready	-6987
▁despite	-6988
vis	-6989
ägt	-6990
▁umfasst	-6991
6.	-6992
▁Services	-6993
▁maximum	-6994
▁valid	-6995
ibe	-6996
iell	-6997
anda	-6998
▁Jetzt	-6999
▁nationale	-7000
▁machine	-7001
zy	-7002
TV	-7003
▁ones	-7004
▁Vertrauen	-7005
▁businesses	-7006
▁Are	-7007
▁remov	-7008
▁Protokoll	-7009
▁sports	-7010
▁Gesamt	-7011
ichern	-7012
▁konkre	-7013
▁Einfluss	-7014
Pr	-7015
ione	-7016
ded	-7017
▁powers	-7018
▁Agrar	-7019
zeigen	-7020
▁Dav	-7021
▁influence	-7022
iant	-7023
mand	-7024
▁Centre	-7025
▁brand	-7026
▁voting	-7027
▁Organisationen	-7028
▁Del	-7029
▁angesichts	-7030
▁Sam	-7031
ifically	-7032
▁gegenwärt	-7033
▁unten	-7034
▁players	-7035
CO	-7036
▁methods	-7037
▁Gold	-7038
▁kennen	-7039
sen	-7040
▁Cap	-7041
▁größer	-7042
▁vorsch	-7043
▁server	-7044
▁Russian	-7045
struktur	-7046
▁elegant	-7047
▁überprüfen	-7048
▁Stellung	-7049
▁%	-7050
ickets	-7051
▁Schwierigkeiten	-7052
▁Conference	-7053
▁scientific	-7054
▁ethn	-7055
▁advert	-7056
▁Staat	-7057
▁geworden	-7058
▁Video	-7059
▁befassen	-7060
▁angene	-7061
▁Site	-7062
▁concentr	-7063
▁Cop	-7064
▁Google	-7065
SS	-7066
Sterne	-7067
▁Gran	-7068
Le	-7069
▁lost	-7070
iding	-7071
▁hinzufügen	-7072
pass	-7073
▁Angebot	-7074
son	-7075
älter	-7076
▁Verwaltung	-7077
▁Kn	-7078
plement	-7079
▁schon	-7080
▁Budget	-7081
▁Vergleich	-7082
▁Vereinbarung	-7083
techn	-7084
▁Ged	-7085
▁arrange	-7086
reland	-7087
▁lands	-7088
▁lösen	-7089
▁interested	-7090
▁bezahl	-7091
standen	-7092
▁claim	-7093
▁Risiko	-7094
▁Anges	-7095
▁Landwir	-7096
▁Verpflichtungen	-7097
uert	-7098
▁parking	-7099
▁nütz	-7100
▁vern	-7101
itation	-7102
▁languages	-7103
▁hervorragende	-7104
ätigkeit	-7105
cia	-7106
▁innovation	-7107
▁Fir	-7108
▁Spieler	-7109
▁Cy	-7110
folger	-7111
▁competit	-7112
möglichkeiten	-7113
▁Leistung	-7114
▁Hal	-7115
▁weder	-7116
▁reforms	-7117
▁annual	-7118
zeichnung	-7119
ounge	-7120
▁Werte	-7121
▁borders	-7122
▁Winter	-7123
▁exerc	-7124
▁PH	-7125
ordination	-7126
erver	-7127
▁unabhängig	-7128
igungen	-7129
▁accepted	-7130
▁persönlichen	-7131
sc	-7132
▁debt	-7133
fachen	-7134
▁Dat	-7135
▁cast	-7136
▁Eas	-7137
▁Wider	-7138
rogen	-7139
▁Prä	-7140
▁raised	-7141
▁verlassen	-7142
▁Flex	-7143
▁pictures	-7144
▁morning	-7145
▁sort	-7146
▁abz	-7147
▁AL	-7148
werte	-7149
▁Gefahr	-7150
▁Griechen	-7151
▁dipl	-7152
quem	-7153
▁Ireland	-7154
▁Bewertung	-7155
änge	-7156
▁SM	-7157
▁genu	-7158
▁release	-7159
▁Opfer	-7160
oke	-7161
▁technischen	-7162
fence	-7163
▁enorm	-7164
▁trying	-7165
▁fas	-7166
/9	-7167
rup	-7168
▁apprec	-7169
▁heav	-7170
▁demands	-7171
leistung	-7172
ras	-7173
▁Mass	-7174
▁rele	-7175
▁Wissenschaft	-7176
▁Annahme	-7177
▁Bereit	-7178
▁klicken	-7179
▁Telefon	-7180
▁expert	-7181
icklung	-7182
itory	-7183
▁moderne	-7184
▁Garten	-7185
▁Swiss	-7186
▁fragen	-7187
▁wanted	-7188
▁NATO	-7189
▁cert	-7190
deten	-7191
zentrum	-7192
▁crimin	-7193
▁increasingly	-7194
▁Sitzung	-7195
▁Bedürfnisse	-7196
▁ziemlich	-7197
▁strategic	-7198
gemeine	-7199
9,	-7200
▁Frankf	-7201
inu	-7202
▁End	-7203
▁untern	-7204
glied	-7205
▁Indeed	-7206
▁Arbeitslos	-7207
▁Et	-7208
▁einheit	-7209
▁Tor	-7210
▁Teile	-7211
▁shopping	-7212
▁remember	-7213
aters	-7214
▁enor	-7215
▁affe	-7216
▁fear	-7217
▁komplex	-7218
zeichen	-7219
▁präsent	-7220
▁lay	-7221
▁amt	-7222
▁Vielen	-7223
trieben	-7224
▁Moment	-7225
besch	-7226
▁swimming	-7227
▁selection	-7228
▁geschaffen	-7229
▁Klicken	-7230
gruppen	-7231
▁mitt	-7232
▁Reserv	-7233
▁Solidarität	-7234
▁Weitere	-7235
elte	-7236
▁Garant	-7237
▁zerst	-7238
▁automatisch	-7239
▁visitors	-7240
▁eingerichtet	-7241
gesetz	-7242
vorsitz	-7243
▁images	-7244
▁Engagement	-7245
▁motor	-7246
▁funktioniert	-7247
▁overall	-7248
▁verbessert	-7249
▁Dorf	-7250
▁erklärt	-7251
mod	-7252
utin	-7253
▁namely	-7254
▁Mex	-7255
gewicht	-7256
▁übernehmen	-7257
bro	-7258
▁bathroom	-7259
▁domin	-7260
igran	-7261
stieg	-7262
):	-7263
änderungen	-7264
board	-7265
gruppe	-7266
schlossen	-7267
▁initiatives	-7268
▁absolutely	-7269
▁Gast	-7270
▁Glück	-7271
▁vergangenen	-7272
abr	-7273
▁currency	-7274
▁ebenso	-7275
▁Ident	-7276
▁anderes	-7277
iums	-7278
▁Versuch	-7279
zieht	-7280
▁games	-7281
▁Industr	-7282
▁substant	-7283
▁street	-7284
▁Körper	-7285
star	-7286
icherung	-7287
▁195	-7288
▁calls	-7289
▁Netzwerk	-7290
▁AC	-7291
▁tät	-7292
isely	-7293
▁earl	-7294
▁35	-7295
etten	-7296
▁sorg	-7297
▁Est	-7298
▁klare	-7299
gründet	-7300
▁honour	-7301
▁Stadtz	-7302
▁manufactur	-7303
▁infrastructure	-7304
▁wrong	-7305
▁Secondly	-7306
▁vorher	-7307
▁bessere	-7308
▁likely	-7309
reiber	-7310
▁heutigen	-7311
▁fahren	-7312
hagen	-7313
▁fields	-7314
▁rise	-7315
▁Spezial	-7316
▁Betrieb	-7317
▁upd	-7318
schließen	-7319
▁target	-7320
▁Untersuch	-7321
▁changed	-7322
▁Pla	-7323
▁cities	-7324
▁alone	-7325
▁representatives	-7326
▁vital	-7327
▁Ferien	-7328
ighted	-7329
▁ability	-7330
▁Afghanistan	-7331
▁besondere	-7332
▁tourist	-7333
▁Österreich	-7334
ikanische	-7335
▁150	-7336
wesen	-7337
▁Mö	-7338
hältnis	-7339
▁goal	-7340
▁Tal	-7341
▁coup	-7342
SP	-7343
▁proceed	-7344
▁erschein	-7345
▁Holz	-7346
▁abzu	-7347
ulations	-7348
▁ko	-7349
▁Angesichts	-7350
▁tal	-7351
ördert	-7352
ktive	-7353
▁fine	-7354
ibilität	-7355
mel	-7356
▁Privat	-7357
▁Heute	-7358
▁Großbritannien	-7359
▁Verfassung	-7360
▁Aufgrund	-7361
ßt	-7362
▁committed	-7363
enty	-7364
5-0	-7365
▁Klimawand	-7366
werten	-7367
inens	-7368
▁emissions	-7369
stoffe	-7370
▁Besucher	-7371
▁listen	-7372
atalog	-7373
▁intended	-7374
▁plans	-7375
▁Sum	-7376
▁Agre	-7377
hood	-7378
▁Home	-7379
▁expressed	-7380
DP	-7381
bum	-7382
▁luxur	-7383
wegen	-7384
▁übernachten	-7385
▁Lab	-7386
▁fire	-7387
▁Rev	-7388
▁wert	-7389
▁Sehens	-7390
▁worked	-7391
orea	-7392
▁regime	-7393
Al	-7394
äne	-7395
▁Room	-7396
▁email	-7397
used	-7398
staaten	-7399
▁Glaub	-7400
▁früh	-7401
▁Bürgern	-7402
lymp	-7403
▁mittel	-7404
zeichnen	-7405
▁van	-7406
▁restrict	-7407
unk	-7408
▁Liberal	-7409
indungen	-7410
hent	-7411
▁rom	-7412
ienten	-7413
ifiziert	-7414
▁verfolgen	-7415
grams	-7416
▁gesetz	-7417
▁sil	-7418
▁Ern	-7419
15	-7420
afft	-7421
iat	-7422
▁Nations	-7423
▁insgesamt	-7424
zt	-7425
▁erkennen	-7426
▁umfang	-7427
8,	-7428
▁accession	-7429
▁Only	-7430
▁Vide	-7431
▁allgemein	-7432
ütze	-7433
▁structural	-7434
▁gleiche	-7435
▁schließlich	-7436
▁processing	-7437
▁Arbeitsplätze	-7438
▁unemployment	-7439
kom	-7440
▁Hoff	-7441
▁jähr	-7442
▁Cr	-7443
▁Fot	-7444
▁Abs	-7445
▁Beweg	-7446
▁People	-7447
▁vergessen	-7448
▁EA	-7449
▁Gef	-7450
▁flexible	-7451
QL	-7452
bü	-7453
meer	-7454
ücke	-7455
anc	-7456
hil	-7457
▁Waren	-7458
ologischen	-7459
het	-7460
2-	-7461
▁Dub	-7462
▁Term	-7463
▁Osten	-7464
▁heard	-7465
▁angeboten	-7466
▁India	-7467
▁Its	-7468
▁Modell	-7469
▁lies	-7470
▁Tier	-7471
▁Enterprise	-7472
▁elektron	-7473
▁hoffen	-7474
▁Hintergrund	-7475
▁komp	-7476
▁yourself	-7477
itts	-7478
cluded	-7479
▁Partei	-7480
13	-7481
okraten	-7482
aries	-7483
▁occup	-7484
▁Unabhäng	-7485
▁Irak	-7486
▁Koordin	-7487
▁track	-7488
ION	-7489
▁season	-7490
▁staat	-7491
▁Warum	-7492
sichtlich	-7493
▁prüfen	-7494
chtzeit	-7495
ichert	-7496
▁negative	-7497
▁Option	-7498
inary	-7499
IF	-7500
▁Verhalten	-7501
▁Tourismus	-7502
gets	-7503
▁Diskussion	-7504
▁Georg	-7505
▁stabil	-7506
▁bir	-7507
▁administration	-7508
▁Erd	-7509
▁attempt	-7510
asts	-7511
ongs	-7512
▁Tatsächlich	-7513
▁schönen	-7514
plant	-7515
▁decor	-7516
▁camp	-7517
▁IP	-7518
▁God	-7519
hlt	-7520
▁mm	-7521
▁Fakt	-7522
▁mainly	-7523
▁Sehenswürd	-7524
▁Umst	-7525
▁Status	-7526
▁befürwor	-7527
▁bezeichnet	-7528
▁Eben	-7529
▁Wahlen	-7530
▁Ideen	-7531
▁talking	-7532
▁whom	-7533
bu	-7534
ibly	-7535
imat	-7536
▁improved	-7537
▁Bal	-7538
▁Basis	-7539
▁families	-7540
▁menu	-7541
▁Arab	-7542
▁Play	-7543
di	-7544
ga	-7545
▁Beruf	-7546
etze	-7547
▁sorgen	-7548
Ch	-7549
▁award	-7550
ästinens	-7551
angs	-7552
▁Websites	-7553
▁cohesion	-7554
▁Völk	-7555
zul	-7556
▁USD	-7557
pendence	-7558
▁gelegen	-7559
▁Costa	-7560
▁militär	-7561
▁justice	-7562
▁teilen	-7563
▁planning	-7564
inc	-7565
▁remind	-7566
▁running	-7567
▁gek	-7568
▁circumstances	-7569
▁nächste	-7570
▁affected	-7571
▁gre	-7572
▁laws	-7573
▁Augen	-7574
rum	-7575
Europe	-7576
▁reduced	-7577
ifizierung	-7578
▁reich	-7579
▁erleich	-7580
▁hergestellt	-7581
▁administrative	-7582
▁Sand	-7583
uly	-7584
▁placed	-7585
▁sal	-7586
ifying	-7587
akte	-7588
▁quant	-7589
ray	-7590
▁Büro	-7591
▁cell	-7592
▁conclusion	-7593
▁resort	-7594
CD	-7595
▁confidence	-7596
▁compos	-7597
▁traffic	-7598
▁Freiz	-7599
▁opening	-7600
Bericht	-7601
▁mill	-7602
▁approved	-7603
▁Titel	-7604
mü	-7605
▁offensichtlich	-7606
▁Ausgaben	-7607
idelines	-7608
▁zeit	-7609
agraph	-7610
▁Karte	-7611
▁hostel	-7612
▁Stabilität	-7613
▁decide	-7614
▁player	-7615
▁Boden	-7616
▁Merk	-7617
▁Schön	-7618
▁Herstellung	-7619
▁helpf	-7620
▁simpl	-7621
▁Leider	-7622
▁risks	-7623
▁benötigt	-7624
dra	-7625
ruit	-7626
deck	-7627
▁Asia	-7628
▁1990	-7629
▁beha	-7630
25	-7631
acc	-7632
▁discrimin	-7633
▁Erfahrungen	-7634
▁Sache	-7635
▁Waffen	-7636
ories	-7637
▁priorities	-7638
gehend	-7639
▁Herausforderung	-7640
▁fert	-7641
▁autom	-7642
rel	-7643
uses	-7644
▁Herz	-7645
▁sogen	-7646
▁ensuring	-7647
book	-7648
▁provision	-7649
▁effektiv	-7650
▁contribute	-7651
▁powerful	-7652
LAN	-7653
/0	-7654
▁Liber	-7655
bit	-7656
▁datab	-7657
▁ordnungs	-7658
▁Kommunikation	-7659
Bahn	-7660
▁Greece	-7661
▁Größe	-7662
▁wunderschö	-7663
handel	-7664
▁Wunsch	-7665
▁Mün	-7666
▁Stil	-7667
▁Assoc	-7668
▁erwartet	-7669
▁confirm	-7670
▁Mitte	-7671
aming	-7672
▁evening	-7673
▁Tex	-7674
▁Middle	-7675
▁spect	-7676
▁kitchen	-7677
▁compl	-7678
ziert	-7679
▁begrenz	-7680
uit	-7681
▁empfe	-7682
verfahren	-7683
IE	-7684
preis	-7685
▁3-	-7686
▁feature	-7687
▁Airport	-7688
attle	-7689
▁fresh	-7690
▁walking	-7691
▁comments	-7692
▁diskutieren	-7693
▁encourage	-7694
▁Av	-7695
▁Bew	-7696
▁entweder	-7697
▁IM	-7698
▁refuge	-7699
gelegten	-7700
▁ordnungsgem	-7701
▁Qualitäts	-7702
▁extend	-7703
▁Wann	-7704
ING	-7705
set	-7706
inian	-7707
lisch	-7708
▁His	-7709
las	-7710
▁students	-7711
▁Haft	-7712
▁umgesetzt	-7713
▁Verwaltungs	-7714
▁Gefühl	-7715
▁Rede	-7716
llos	-7717
▁Zwischen	-7718
▁Agenda	-7719
▁delivery	-7720
onn	-7721
▁poll	-7722
RA	-7723
▁Nah	-7724
sie	-7725
▁folgen	-7726
▁automatically	-7727
9.	-7728
▁Kindern	-7729
merk	-7730
bew	-7731
▁Zur	-7732
aschine	-7733
▁coordin	-7734
▁anders	-7735
aria	-7736
▁Immobilien	-7737
▁cele	-7738
ael	-7739
öffentlich	-7740
▁feed	-7741
▁blo	-7742
▁participation	-7743
▁effectively	-7744
▁victims	-7745
▁Bi	-7746
▁größere	-7747
▁Roma	-7748
▁scope	-7749
▁suitable	-7750
▁supports	-7751
▁Produkten	-7752
grenz	-7753
▁Denn	-7754
▁love	-7755
quality	-7756
▁larger	-7757
//	-7758
cting	-7759
▁allgemeinen	-7760
zech	-7761
ensive	-7762
quate	-7763
▁russ	-7764
called	-7765
▁terrace	-7766
▁Reformen	-7767
▁Mess	-7768
last	-7769
bourg	-7770
▁expand	-7771
ustausch	-7772
künd	-7773
▁sieht	-7774
nel	-7775
▁touch	-7776
▁says	-7777
▁collection	-7778
IG	-7779
▁anc	-7780
▁lesen	-7781
▁Worten	-7782
▁Sing	-7783
▁Februar	-7784
edia	-7785
alled	-7786
atoren	-7787
endet	-7788
ags	-7789
▁agriculture	-7790
laus	-7791
▁sources	-7792
▁beseit	-7793
▁played	-7794
wirken	-7795
▁chines	-7796
▁rechts	-7797
▁According	-7798
▁Fischerei	-7799
▁Hostels	-7800
▁Sea	-7801
lement	-7802
▁crime	-7803
▁po	-7804
▁aimed	-7805
ago	-7806
ids	-7807
▁süd	-7808
erse	-7809
pack	-7810
▁institutional	-7811
▁specifically	-7812
▁hund	-7813
▁watch	-7814
▁manner	-7815
idential	-7816
▁Vielfalt	-7817
▁beteiligt	-7818
▁Resort	-7819
▁zentral	-7820
▁gegründet	-7821
▁Cast	-7822
▁extensive	-7823
▁fellow	-7824
▁Kriterien	-7825
▁medic	-7826
▁introduced	-7827
esearch	-7828
ield	-7829
▁Schne	-7830
law	-7831
▁abgeschlossen	-7832
▁sorgfält	-7833
▁Überwachung	-7834
aste	-7835
▁box	-7836
lungs	-7837
▁Dom	-7838
spiel	-7839
denken	-7840
▁Street	-7841
ham	-7842
▁nieder	-7843
arus	-7844
iano	-7845
freiheit	-7846
▁summit	-7847
uts	-7848
▁competitive	-7849
▁Einrichtung	-7850
▁tit	-7851
icks	-7852
▁Eff	-7853
▁Gleichzeitig	-7854
leisch	-7855
▁platform	-7856
odies	-7857
▁Innovation	-7858
▁occur	-7859
▁becoming	-7860
▁repla	-7861
fä	-7862
▁phone	-7863
▁Ander	-7864
▁Regional	-7865
▁Überein	-7866
▁6.	-7867
omet	-7868
▁2020	-7869
▁Infrastruktur	-7870
▁kons	-7871
▁Chance	-7872
▁tabled	-7873
8.	-7874
▁verur	-7875
▁belieb	-7876
▁Code	-7877
▁precisely	-7878
▁Most	-7879
▁ec	-7880
▁Milliar	-7881
▁usually	-7882
ränken	-7883
▁zuständ	-7884
▁electronic	-7885
▁purposes	-7886
▁Tab	-7887
▁Sektor	-7888
▁rural	-7889
▁programs	-7890
itzen	-7891
90	-7892
oted	-7893
aub	-7894
fiz	-7895
▁erhältlich	-7896
▁serve	-7897
ulierung	-7898
7,	-7899
letter	-7900
▁Agreement	-7901
idents	-7902
▁Technologien	-7903
esents	-7904
▁News	-7905
atively	-7906
▁beschlossen	-7907
▁Anwendungen	-7908
▁detailed	-7909
ala	-7910
time	-7911
▁Bur	-7912
TA	-7913
▁ship	-7914
▁basiert	-7915
://	-7916
▁helpful	-7917
ua	-7918
▁mid	-7919
▁hören	-7920
▁aktual	-7921
▁Kind	-7922
▁dead	-7923
▁Any	-7924
▁Sinne	-7925
▁Friedens	-7926
azz	-7927
%.	-7928
▁animals	-7929
herste	-7930
tendlich	-7931
▁critical	-7932
chend	-7933
▁referred	-7934
▁leider	-7935
▁church	-7936
▁einiger	-7937
▁Konflikt	-7938
barer	-7939
enhagen	-7940
▁ausschließlich	-7941
ado	-7942
pliz	-7943
äuser	-7944
▁hot	-7945
▁erb	-7946
▁Serb	-7947
ktoren	-7948
▁Each	-7949
▁speziell	-7950
urses	-7951
▁befasst	-7952
▁represents	-7953
ads	-7954
windigkeit	-7955
mär	-7956
▁Olymp	-7957
▁arm	-7958
üge	-7959
amin	-7960
▁wants	-7961
▁black	-7962
▁weap	-7963
▁developments	-7964
amber	-7965
▁Voll	-7966
▁Realität	-7967
daten	-7968
Sh	-7969
▁Milit	-7970
▁beige	-7971
▁Flücht	-7972
▁unternehmen	-7973
öm	-7974
▁Board	-7975
▁Roman	-7976
▁demokratischen	-7977
▁exactly	-7978
entlich	-7979
enntnis	-7980
führten	-7981
▁Fähigkeit	-7982
▁Mitgliedstaat	-7983
▁police	-7984
itzerland	-7985
▁vorgelegt	-7986
▁unterstütze	-7987
▁motion	-7988
▁angesprochen	-7989
gers	-7990
▁mand	-7991
▁served	-7992
mon	-7993
▁Sen	-7994
▁Name	-7995
PT	-7996
jected	-7997
▁gesprochen	-7998
ores	-7999
▁protected	-8000
▁NI	-8001
▁dramat	-8002
▁convin	-8003
▁bequem	-8004
▁thousands	-8005
▁muse	-8006
▁Download	-8007
▁Essen	-8008
▁photo	-8009
▁functions	-8010
▁getting	-8011
▁Czech	-8012
▁competen	-8013
▁Morgen	-8014
eingeschrän	-8015
▁Policy	-8016
person	-8017
▁otherwise	-8018
▁Wik	-8019
▁abst	-8020
▁kaufen	-8021
▁stated	-8022
▁installation	-8023
olden	-8024
öffnen	-8025
▁budgetary	-8026
▁discussed	-8027
▁white	-8028
“,	-8029
▁managed	-8030
▁gerecht	-8031
rüst	-8032
ensions	-8033
▁remark	-8034
▁uneingeschrän	-8035
▁expected	-8036
▁inn	-8037
▁verm	-8038
▁Sprachen	-8039
▁cos	-8040
gree	-8041
Kon	-8042
▁discussions	-8043
▁Cre	-8044
▁Tele	-8045
▁defend	-8046
iler	-8047
▁Schengen	-8048
▁facilit	-8049
▁Währung	-8050
▁Suche	-8051
esellschaften	-8052
▁Licht	-8053
verständ	-8054
▁dedic	-8055
▁AN	-8056
▁Treffen	-8057
▁chann	-8058
▁Prioritäten	-8059
▁Prote	-8060
▁temper	-8061
▁emb	-8062
lungen	-8063
▁Elekt	-8064
klang	-8065
▁enth	-8066
▁Then	-8067
▁Jahrhunderts	-8068
eten	-8069
▁sitting	-8070
▁einfache	-8071
So	-8072
án	-8073
sb	-8074
wel	-8075
▁Dol	-8076
▁iP	-8077
▁globale	-8078
▁Berichte	-8079
▁followed	-8080
▁sold	-8081
▁spread	-8082
▁Other	-8083
▁screen	-8084
▁fallen	-8085
krieg	-8086
▁earlier	-8087
hle	-8088
▁Dre	-8089
ünen	-8090
▁handeln	-8091
▁Hause	-8092
otenzial	-8093
ureau	-8094
▁Stelle	-8095
▁Hauses	-8096
▁assessment	-8097
▁übertragen	-8098
▁besonderen	-8099
führer	-8100
fügt	-8101
cers	-8102
▁closely	-8103
▁income	-8104
kehren	-8105
▁Salz	-8106
▁Königreich	-8107
ev	-8108
orgnis	-8109
▁Spr	-8110
plätzen	-8111
▁territor	-8112
▁Ev	-8113
▁medical	-8114
ida	-8115
avi	-8116
▁verz	-8117
▁Zeitraum	-8118
▁Schlussfolger	-8119
▁hervorge	-8120
▁Slov	-8121
lad	-8122
▁Turk	-8123
achsen	-8124
▁gering	-8125
▁außergewöhn	-8126
▁moral	-8127
▁trust	-8128
kräfte	-8129
▁400	-8130
▁forget	-8131
▁Aufgaben	-8132
▁jüngsten	-8133
kap	-8134
▁voraus	-8135
prechen	-8136
▁immigration	-8137
▁Pool	-8138
▁Economic	-8139
▁February	-8140
▁Research	-8141
▁interpret	-8142
▁Analyse	-8143
richtungen	-8144
wasser	-8145
rahmen	-8146
▁richtigen	-8147
5-	-8148
▁networks	-8149
▁3,	-8150
▁Card	-8151
▁Lib	-8152
▁electric	-8153
uber	-8154
▁Tar	-8155
▁substantial	-8156
▁enterprises	-8157
ault	-8158
▁Acht	-8159
▁camera	-8160
▁erfüllt	-8161
icts	-8162
haften	-8163
▁provider	-8164
▁guidelines	-8165
▁teilnehmen	-8166
ailing	-8167
categories	-8168
▁Paul	-8169
▁element	-8170
▁Hy	-8171
▁auszu	-8172
▁informieren	-8173
can	-8174
▁Great	-8175
▁improving	-8176
”.	-8177
▁Strom	-8178
jekten	-8179
▁Entsp	-8180
▁Banken	-8181
teuer	-8182
▁Konzept	-8183
▁geöffnet	-8184
issionen	-8185
▁Hol	-8186
▁Bush	-8187
▁wood	-8188
▁Found	-8189
▁covered	-8190
▁client	-8191
▁Pakistan	-8192
▁perfekt	-8193
rain	-8194
Die	-8195
either	-8196
▁Geist	-8197
▁entry	-8198
lying	-8199
▁prem	-8200
erechn	-8201
▁operations	-8202
▁anderem	-8203
▁introduction	-8204
Reg	-8205
▁Ratsvorsitz	-8206
▁Rein	-8207
▁Fernse	-8208
▁conver	-8209
▁speech	-8210
▁supporting	-8211
▁Komb	-8212
▁Du	-8213
▁technische	-8214
ora	-8215
ffee	-8216
▁Monate	-8217
union	-8218
portion	-8219
.”	-8220
ita	-8221
▁ep	-8222
▁Auftrag	-8223
▁Gel	-8224
▁corresp	-8225
gencies	-8226
erkennung	-8227
▁gegenseit	-8228
▁Touristen	-8229
▁Hü	-8230
▁considerable	-8231
▁selected	-8232
▁vac	-8233
preise	-8234
ünsche	-8235
vements	-8236
▁Phil	-8237
▁paper	-8238
▁Ereignisse	-8239
werke	-8240
▁intell	-8241
▁domestic	-8242
▁actual	-8243
▁begann	-8244
MU	-8245
▁Sä	-8246
▁Power	-8247
▁au	-8248
▁Why	-8249
cause	-8250
▁Stimme	-8251
▁economies	-8252
▁listed	-8253
▁linked	-8254
▁überhaupt	-8255
IR	-8256
▁gratulieren	-8257
aves	-8258
▁hol	-8259
Str	-8260
▁profitieren	-8261
isierte	-8262
▁understanding	-8263
schech	-8264
▁Einklang	-8265
mo	-8266
ückt	-8267
▁unc	-8268
▁behaup	-8269
▁kontroll	-8270
äden	-8271
umin	-8272
▁scen	-8273
▁Jeder	-8274
plex	-8275
▁trag	-8276
▁Luxem	-8277
ishes	-8278
▁Schaden	-8279
▁aktuelle	-8280
mas	-8281
▁Casino	-8282
konferenz	-8283
▁Installation	-8284
▁Syr	-8285
▁Sonnen	-8286
▁buildings	-8287
▁ständig	-8288
▁Office	-8289
7.	-8290
▁mal	-8291
deckt	-8292
dessen	-8293
▁inside	-8294
▁Barro	-8295
▁Katastrop	-8296
zeugung	-8297
▁compens	-8298
▁Prag	-8299
▁Vill	-8300
formationen	-8301
▁Initiativen	-8302
',	-8303
EA	-8304
▁wonderful	-8305
▁Tun	-8306
▁destro	-8307
möglich	-8308
▁degree	-8309
reifen	-8310
▁leb	-8311
iscal	-8312
▁Kol	-8313
bruch	-8314
▁ade	-8315
clude	-8316
▁metres	-8317
▁Beschäftigungs	-8318
do	-8319
qualität	-8320
▁passiert	-8321
▁contem	-8322
▁impress	-8323
▁alte	-8324
▁allein	-8325
levision	-8326
crete	-8327
▁ged	-8328
istence	-8329
▁Antrag	-8330
▁Switzerland	-8331
▁finanzielle	-8332
hy	-8333
▁19.	-8334
▁Frankfurt	-8335
künft	-8336
▁Bos	-8337
ingu	-8338
▁Origin	-8339
▁Wellness	-8340
-20	-8341
▁unz	-8342
▁winter	-8343
▁7.	-8344
uropä	-8345
▁compar	-8346
▁opened	-8347
▁Terrasse	-8348
gment	-8349
▁hands	-8350
▁absolut	-8351
▁Fore	-8352
▁beantwor	-8353
▁willing	-8354
▁Poland	-8355
▁verwende	-8356
▁gegenwärtigen	-8357
System	-8358
▁unmittel	-8359
▁zul	-8360
▁uses	-8361
▁Ja	-8362
anische	-8363
▁Kal	-8364
▁save	-8365
▁Break	-8366
▁Formen	-8367
richtung	-8368
▁entit	-8369
▁Motor	-8370
ameter	-8371
▁Verbrauch	-8372
▁kombin	-8373
▁pleasant	-8374
roh	-8375
▁zahlen	-8376
lägen	-8377
▁Colle	-8378
▁explo	-8379
▁monetary	-8380
▁eingeführt	-8381
▁accomp	-8382
▁average	-8383
▁Reaktion	-8384
▁acqu	-8385
▁experts	-8386
▁entirely	-8387
▁presidency	-8388
▁Ky	-8389
overy	-8390
▁Veröffentlich	-8391
▁centr	-8392
▁elimin	-8393
▁Zeichen	-8394
▁verloren	-8395
reiten	-8396
straße	-8397
▁authority	-8398
itors	-8399
uting	-8400
▁Dann	-8401
▁garantiert	-8402
▁pred	-8403
▁presence	-8404
▁Click	-8405
uard	-8406
▁tut	-8407
istrib	-8408
▁ce	-8409
▁genannten	-8410
23	-8411
▁Berat	-8412
▁warten	-8413
▁allgemeine	-8414
▁radio	-8415
▁Health	-8416
▁betrachten	-8417
▁Arch	-8418
▁competitiveness	-8419
▁tourism	-8420
▁vollständige	-8421
▁Roy	-8422
▁delay	-8423
band	-8424
▁Trek	-8425
stelle	-8426
ussels	-8427
19	-8428
▁registr	-8429
▁alloc	-8430
▁comment	-8431
▁beschäft	-8432
▁suc	-8433
▁components	-8434
▁24-	-8435
try	-8436
mack	-8437
fu	-8438
räume	-8439
▁argument	-8440
▁politics	-8441
aben	-8442
▁Geschäft	-8443
onym	-8444
▁tack	-8445
▁Belarus	-8446
▁Harmon	-8447
▁properly	-8448
▁Out	-8449
▁gutes	-8450
▁fisheries	-8451
▁coordination	-8452
▁Eisen	-8453
▁Dateien	-8454
▁Live	-8455
▁Mechan	-8456
▁psych	-8457
▁Aktions	-8458
▁exclusive	-8459
po	-8460
Dollar	-8461
▁Top	-8462
▁marketing	-8463
imit	-8464
▁Autor	-8465
▁picture	-8466
▁überzeugt	-8467
▁ed	-8468
▁Kombination	-8469
▁Mel	-8470
kor	-8471
▁brief	-8472
▁cas	-8473
▁Autom	-8474
▁Wachstums	-8475
▁generally	-8476
▁dauer	-8477
stat	-8478
▁stell	-8479
LE	-8480
▁ISO	-8481
▁suppl	-8482
▁Systeme	-8483
wirt	-8484
▁founded	-8485
▁purchase	-8486
gin	-8487
▁map	-8488
▁mobil	-8489
imb	-8490
▁telephone	-8491
▁advanced	-8492
▁went	-8493
teten	-8494
▁finanziellen	-8495
▁strict	-8496
▁Dienste	-8497
▁Währungs	-8498
angeb	-8499
spunkt	-8500
▁Over	-8501
▁adjust	-8502
▁Ann	-8503
▁duty	-8504
ossible	-8505
▁plants	-8506
öder	-8507
▁gave	-8508
▁trip	-8509
oman	-8510
▁Stein	-8511
ova	-8512
▁criminal	-8513
▁animal	-8514
▁facing	-8515
▁länger	-8516
umn	-8517
▁match	-8518
▁playing	-8519
▁Black	-8520
hörde	-8521
▁Zugrif	-8522
jährigen	-8523
▁stattfinden	-8524
▁Unfortunately	-8525
▁Zweifel	-8526
▁color	-8527
IB	-8528
reck	-8529
▁00	-8530
▁sagt	-8531
▁Dig	-8532
▁Freund	-8533
▁combat	-8534
▁difficulties	-8535
▁älter	-8536
üs	-8537
▁geeig	-8538
▁dealing	-8539
vey	-8540
▁Amb	-8541
▁Under	-8542
▁Kingdom	-8543
▁Bay	-8544
organisation	-8545
Adr	-8546
▁digit	-8547
▁Because	-8548
▁grenz	-8549
▁Brussels	-8550
▁scr	-8551
▁resist	-8552
ennis	-8553
▁Defin	-8554
▁succeed	-8555
▁Wien	-8556
▁sand	-8557
istungs	-8558
▁thinking	-8559
ologische	-8560
▁Justiz	-8561
▁Never	-8562
▁opposition	-8563
ibel	-8564
▁Mount	-8565
achtung	-8566
qual	-8567
▁spielt	-8568
▁incor	-8569
▁becomes	-8570
▁Haltung	-8571
▁wollte	-8572
▁items	-8573
isierten	-8574
▁Lam	-8575
▁typical	-8576
wes	-8577
▁bott	-8578
▁Entwicklungen	-8579
opt	-8580
▁percent	-8581
▁wenden	-8582
▁Einsch	-8583
▁Aussicht	-8584
öse	-8585
▁herz	-8586
ereicht	-8587
▁französischen	-8588
▁Prinzip	-8589
icians	-8590
▁constit	-8591
▁Fotos	-8592
▁vehicles	-8593
▁Patienten	-8594
▁(3	-8595
▁Elemente	-8596
▁sho	-8597
▁Hersteller	-8598
aken	-8599
forsch	-8600
▁relate	-8601
▁Botschaft	-8602
▁rent	-8603
▁Mensch	-8604
▁Unterkunft	-8605
ausschusses	-8606
reise	-8607
▁deep	-8608
wissen	-8609
stands	-8610
▁unternommen	-8611
▁photograph	-8612
▁financing	-8613
▁Priorität	-8614
▁lau	-8615
▁failure	-8616
aw	-8617
▁isol	-8618
▁Mitgliedern	-8619
▁bear	-8620
▁bestimmt	-8621
▁Ster	-8622
▁multi	-8623
▁Rooms	-8624
▁recognis	-8625
Es	-8626
▁sole	-8627
▁Kritik	-8628
imself	-8629
▁Sow	-8630
iothe	-8631
▁kaum	-8632
▁Ul	-8633
▁bemü	-8634
▁Mik	-8635
▁calc	-8636
ibet	-8637
▁Instrumente	-8638
▁IC	-8639
programme	-8640
gangs	-8641
ww	-8642
illing	-8643
▁Einhaltung	-8644
▁numbers	-8645
▁Association	-8646
ema	-8647
▁193	-8648
ibliothe	-8649
▁organisation	-8650
grade	-8651
▁paragraph	-8652
▁akzeptiert	-8653
▁Worte	-8654
▁consideration	-8655
▁bilden	-8656
▁zug	-8657
▁Empf	-8658
▁ergriffen	-8659
2)	-8660
▁dein	-8661
uisine	-8662
▁meetings	-8663
▁Kenn	-8664
▁machines	-8665
▁Schlussel	-8666
opol	-8667
▁htt	-8668
amente	-8669
▁Dus	-8670
▁zukünft	-8671
▁dangerous	-8672
▁Außer	-8673
like	-8674
▁Madrid	-8675
▁Griechenland	-8676
▁applies	-8677
▁Atlant	-8678
inding	-8679
▁endlich	-8680
Date	-8681
▁Eind	-8682
▁PHP	-8683
▁gradu	-8684
unehm	-8685
▁einzus	-8686
▁hosp	-8687
▁verringern	-8688
▁practices	-8689
üste	-8690
▁Datei	-8691
▁Guest	-8692
grammen	-8693
▁Mitteilung	-8694
▁Bern	-8695
▁flexibility	-8696
▁Ratspräsident	-8697
▁normalerweise	-8698
▁Private	-8699
kle	-8700
▁großes	-8701
▁establishment	-8702
▁20.	-8703
16	-8704
ktiven	-8705
making	-8706
▁klass	-8707
▁Englisch	-8708
embly	-8709
▁format	-8710
Er	-8711
▁Prime	-8712
▁empfehlen	-8713
▁himself	-8714
▁kommenden	-8715
itze	-8716
leun	-8717
▁alt	-8718
▁geräum	-8719
uba	-8720
ierend	-8721
▁bodies	-8722
4-0	-8723
▁Polize	-8724
▁reagieren	-8725
▁fixed	-8726
isms	-8727
▁mil	-8728
iro	-8729
tritt	-8730
schiede	-8731
▁peaceful	-8732
▁spacious	-8733
▁zunehmen	-8734
▁aims	-8735
▁bein	-8736
▁refle	-8737
▁modified	-8738
wachst	-8739
▁Links	-8740
▁schöne	-8741
laufen	-8742
▁reception	-8743
ißen	-8744
▁speaking	-8745
▁bestehenden	-8746
▁Hall	-8747
▁Rob	-8748
ifellos	-8749
▁beginnt	-8750
cknow	-8751
eignet	-8752
▁EADS	-8753
▁Anerkennung	-8754
Ne	-8755
ktors	-8756
▁respekt	-8757
iling	-8758
▁middle	-8759
“.	-8760
▁lif	-8761
▁Element	-8762
▁Brüssel	-8763
ometer	-8764
▁Nachrichten	-8765
▁ausgezeich	-8766
www	-8767
▁ignor	-8768
▁easier	-8769
▁nimmt	-8770
▁Vien	-8771
▁lässt	-8772
▁promoting	-8773
rich	-8774
▁defined	-8775
▁junge	-8776
peratur	-8777
▁Einkaufs	-8778
▁erhebliche	-8779
ielten	-8780
▁Milliarden	-8781
▁GN	-8782
II	-8783
arischen	-8784
unehmend	-8785
▁Environment	-8786
DA	-8787
ranken	-8788
iking	-8789
ker	-8790
▁Gewähr	-8791
▁(200	-8792
▁superv	-8793
▁regionalen	-8794
▁Once	-8795
▁promotion	-8796
▁Wass	-8797
ulen	-8798
▁schem	-8799
▁Grundsatz	-8800
handels	-8801
▁parliamentary	-8802
▁Unterkategorien	-8803
▁hop	-8804
▁acknow	-8805
▁reducing	-8806
▁vorgeschlagenen	-8807
▁inspir	-8808
▁signal	-8809
bericht	-8810
24	-8811
endum	-8812
▁Gegensatz	-8813
▁Gespr	-8814
ettbewerbs	-8815
geiz	-8816
▁Festival	-8817
▁Absatz	-8818
▁signed	-8819
▁cred	-8820
▁zahlreiche	-8821
▁Asyl	-8822
dis	-8823
▁seriously	-8824
14	-8825
▁evidence	-8826
▁SP	-8827
iertes	-8828
igern	-8829
mögen	-8830
▁1996	-8831
▁volle	-8832
▁Fen	-8833
▁Fähigkeiten	-8834
▁Alex	-8835
▁gebe	-8836
▁Vorbereit	-8837
sm	-8838
▁Wo	-8839
▁associated	-8840
▁Arbeiten	-8841
▁lernen	-8842
esterday	-8843
yes	-8844
year	-8845
▁experienced	-8846
▁deshalb	-8847
▁weiterer	-8848
lern	-8849
▁graph	-8850
▁Non	-8851
ablen	-8852
aker	-8853
▁Pack	-8854
▁positions	-8855
▁Super	-8856
▁appears	-8857
▁verursacht	-8858
18	-8859
▁told	-8860
▁differences	-8861
essene	-8862
▁vorgesehen	-8863
▁withdra	-8864
bieten	-8865
▁Charakter	-8866
▁Bab	-8867
hören	-8868
▁detail	-8869
▁leader	-8870
ura	-8871
▁cooper	-8872
▁eigenes	-8873
▁verteid	-8874
▁berühmten	-8875
pal	-8876
pon	-8877
▁45	-8878
▁detaill	-8879
▁imag	-8880
▁excess	-8881
▁zunehmend	-8882
▁reprodu	-8883
▁permanent	-8884
bieter	-8885
accept	-8886
partner	-8887
Produ	-8888
▁difference	-8889
▁district	-8890
bal	-8891
▁Gesetzgebung	-8892
▁Versch	-8893
attform	-8894
▁Fitness	-8895
▁politischer	-8896
zier	-8897
known	-8898
▁Santa	-8899
arta	-8900
▁Meter	-8901
▁unbed	-8902
▁models	-8903
▁structures	-8904
▁fordere	-8905
▁humanitarian	-8906
▁Mrd	-8907
▁Vision	-8908
▁Landschaft	-8909
▁myself	-8910
▁unf	-8911
wählen	-8912
gegeben	-8913
▁informed	-8914
unkten	-8915
▁konfront	-8916
umän	-8917
▁beds	-8918
▁clar	-8919
▁organiz	-8920
▁Saint	-8921
▁ausgezeichnet	-8922
worfen	-8923
▁http	-8924
▁trave	-8925
▁einzu	-8926
▁fit	-8927
wing	-8928
▁Zeiten	-8929
▁door	-8930
▁Fonds	-8931
asen	-8932
▁Station	-8933
▁wären	-8934
aktionen	-8935
▁sin	-8936
▁langen	-8937
▁falsch	-8938
▁concrete	-8939
trägt	-8940
richtlinie	-8941
oram	-8942
▁Experten	-8943
GO	-8944
asil	-8945
▁ergeben	-8946
▁fle	-8947
▁safeg	-8948
▁Bedenken	-8949
▁consumption	-8950
▁manage	-8951
arter	-8952
▁hour	-8953
▁implementing	-8954
▁ung	-8955
▁Ausnahme	-8956
▁fiscal	-8957
▁erklären	-8958
);	-8959
aket	-8960
▁shops	-8961
▁Afrika	-8962
▁Indien	-8963
▁happened	-8964
▁Band	-8965
gebiet	-8966
▁agencies	-8967
▁Erk	-8968
gypt	-8969
▁producers	-8970
▁regelmäßig	-8971
▁Trade	-8972
▁impossible	-8973
▁keiner	-8974
ventionen	-8975
▁Stadtzentrum	-8976
▁voice	-8977
▁Beitritts	-8978
▁sonst	-8979
▁Beschreibung	-8980
ashion	-8981
▁indire	-8982
▁bege	-8983
itter	-8984
▁anyone	-8985
▁Haup	-8986
▁estate	-8987
isierungs	-8988
▁beachten	-8989
▁adoption	-8990
▁Schwer	-8991
▁Pfl	-8992
▁MP	-8993
▁Kurz	-8994
haber	-8995
▁Details	-8996
▁Überprüfung	-8997
▁ST	-8998
▁gene	-8999
▁Gründe	-9000
▁Städte	-9001
SC	-9002
▁ancient	-9003
▁Umfang	-9004
▁instru	-9005
▁connected	-9006
▁Verkauf	-9007
ürk	-9008
achtet	-9009
▁celebr	-9010
▁vorbereit	-9011
▁Check	-9012
cont	-9013
▁spent	-9014
▁Kontext	-9015
▁erfolgt	-9016
▁immediate	-9017
reisen	-9018
▁jederzeit	-9019
▁database	-9020
▁Hard	-9021
entwicklung	-9022
▁combination	-9023
ärm	-9024
▁Maschinen	-9025
sicherheit	-9026
▁statements	-9027
▁spending	-9028
▁Zustimmung	-9029
▁condem	-9030
▁studies	-9031
▁adapt	-9032
▁continued	-9033
kunfts	-9034
▁defence	-9035
▁Justice	-9036
▁kulturellen	-9037
ugos	-9038
inent	-9039
luss	-9040
▁Männer	-9041
▁unto	-9042
▁ahead	-9043
▁cuisine	-9044
▁Breakfast	-9045
EO	-9046
▁Verständ	-9047
▁carefully	-9048
▁angewendet	-9049
irms	-9050
▁ök	-9051
box	-9052
▁Act	-9053
iente	-9054
▁Mutter	-9055
▁shared	-9056
▁niemals	-9057
▁anerkannt	-9058
▁mist	-9059
▁Verpflichtung	-9060
gefähr	-9061
ENT	-9062
▁collabor	-9063
ris	-9064
reten	-9065
iques	-9066
riminierung	-9067
▁membership	-9068
setzt	-9069
waren	-9070
▁instance	-9071
▁Polen	-9072
door	-9073
▁10.	-9074
lägt	-9075
▁length	-9076
afr	-9077
▁Gebieten	-9078
▁Menge	-9079
▁announced	-9080
▁accur	-9081
▁Lo	-9082
▁positiv	-9083
▁unaccept	-9084
▁Irish	-9085
brauch	-9086
prinzip	-9087
▁dh	-9088
hofs	-9089
rollen	-9090
▁houses	-9091
▁anz	-9092
metho	-9093
▁Schn	-9094
leihen	-9095
▁truly	-9096
▁vul	-9097
▁Künstler	-9098
▁traditionellen	-9099
▁welcom	-9100
▁calling	-9101
▁recognition	-9102
älfte	-9103
▁guarantees	-9104
▁Main	-9105
▁britischen	-9106
▁Cam	-9107
ünfte	-9108
▁Firstly	-9109
▁Genehm	-9110
▁territory	-9111
▁Streit	-9112
▁Märkte	-9113
▁Forum	-9114
gal	-9115
▁anstatt	-9116
▁neighbour	-9117
▁African	-9118
▁described	-9119
▁Zuständ	-9120
▁genuine	-9121
▁Materialien	-9122
▁umgeben	-9123
▁translation	-9124
▁erhöht	-9125
ifizieren	-9126
▁Ausbildung	-9127
▁derzeitige	-9128
▁freien	-9129
artet	-9130
athed	-9131
▁raise	-9132
ading	-9133
▁50%	-9134
▁Führer	-9135
überschreit	-9136
▁Marken	-9137
▁einst	-9138
▁propose	-9139
▁continues	-9140
▁umfassende	-9141
▁Todes	-9142
rate	-9143
▁Apartment	-9144
afe	-9145
▁England	-9146
▁Schif	-9147
▁Rechnungs	-9148
▁wenigen	-9149
▁Hafen	-9150
onenten	-9151
▁Gipfel	-9152
▁convenient	-9153
▁Rec	-9154
▁sinn	-9155
ensus	-9156
▁Barroso	-9157
▁Kil	-9158
▁privile	-9159
▁fulfil	-9160
▁ruhigen	-9161
leistungs	-9162
▁wünschen	-9163
▁breite	-9164
▁Gleichgewicht	-9165
▁Foundation	-9166
▁gewünsch	-9167
▁exhibition	-9168
itious	-9169
▁advance	-9170
iegen	-9171
▁Company	-9172
▁Klimaanlage	-9173
zep	-9174
karten	-9175
tenance	-9176
lichem	-9177
▁dee	-9178
absicht	-9179
▁beeinträcht	-9180
▁Globalisierung	-9181
hrase	-9182
▁generation	-9183
▁Europeans	-9184
▁discrimination	-9185
▁Ear	-9186
▁article	-9187
▁AK	-9188
▁Teilen	-9189
▁kü	-9190
▁stable	-9191
▁burden	-9192
sized	-9193
yer	-9194
wagen	-9195
▁union	-9196
▁führte	-9197
European	-9198
▁stärker	-9199
elbe	-9200
▁Hindern	-9201
▁Obama	-9202
▁Bestand	-9203
▁courses	-9204
▁Verfügbarkeit	-9205
▁Modern	-9206
▁Inhalte	-9207
▁Democrats	-9208
▁attractive	-9209
▁improvement	-9210
iest	-9211
club	-9212
▁romant	-9213
▁geschützt	-9214
verein	-9215
vollen	-9216
▁Kaffe	-9217
▁genutzt	-9218
ión	-9219
free	-9220
erman	-9221
▁transition	-9222
▁Befug	-9223
▁erreich	-9224
▁Note	-9225
▁stim	-9226
▁Drogen	-9227
▁Michael	-9228
etter	-9229
▁expend	-9230
▁beaches	-9231
body	-9232
▁kos	-9233
▁Verz	-9234
▁plus	-9235
▁informiert	-9236
gibt	-9237
zz	-9238
ategory	-9239
▁Insbesondere	-9240
▁Beitritt	-9241
▁background	-9242
▁Jo	-9243
orte	-9244
▁skills	-9245
aschen	-9246
▁Stärkung	-9247
▁Van	-9248
▁Ve	-9249
igem	-9250
uche	-9251
▁Monat	-9252
▁shower	-9253
▁starke	-9254
▁television	-9255
inks	-9256
▁released	-9257
▁figures	-9258
▁finance	-9259
▁Mir	-9260
▁desire	-9261
▁religious	-9262
nehmern	-9263
▁konfrontiert	-9264
▁Vir	-9265
▁Finn	-9266
▁Fluss	-9267
▁greatest	-9268
äumen	-9269
▁trading	-9270
▁Ca	-9271
▁Lesung	-9272
▁Christian	-9273
▁spl	-9274
▁Risiken	-9275
äufer	-9276
▁Sehr	-9277
▁allowing	-9278
▁erh	-9279
▁compla	-9280
äher	-9281
down	-9282
▁Work	-9283
1)	-9284
▁labor	-9285
management	-9286
▁possibilities	-9287
ampagne	-9288
active	-9289
▁einig	-9290
▁wishes	-9291
▁election	-9292
▁drink	-9293
▁entspannen	-9294
▁Schiff	-9295
▁names	-9296
▁availability	-9297
▁Support	-9298
▁combined	-9299
▁participate	-9300
lösung	-9301
▁liber	-9302
▁Kirche	-9303
ries	-9304
standards	-9305
▁Bill	-9306
reitet	-9307
sektor	-9308
▁Besonder	-9309
▁reasonable	-9310
▁festgestellt	-9311
äfen	-9312
icking	-9313
hindert	-9314
▁architecture	-9315
▁unacceptable	-9316
▁Poker	-9317
▁Bemerk	-9318
▁Problemen	-9319
wohner	-9320
▁Prakt	-9321
▁failed	-9322
igrants	-9323
äten	-9324
▁Federal	-9325
räft	-9326
kam	-9327
▁Due	-9328
ventions	-9329
▁Front	-9330
▁introduce	-9331
▁Anspruch	-9332
4-	-9333
▁Erklärungen	-9334
▁Beteiligung	-9335
▁Universität	-9336
▁einsch	-9337
▁Mindest	-9338
Ab	-9339
rägen	-9340
▁owners	-9341
▁oppos	-9342
▁tasks	-9343
▁asyl	-9344
▁Stellungnahme	-9345
▁sty	-9346
▁Yet	-9347
▁einzigen	-9348
▁ergän	-9349
▁internationaler	-9350
ktions	-9351
▁Unabhängigkeit	-9352
▁urban	-9353
▁strongly	-9354
▁Seine	-9355
▁??	-9356
▁forest	-9357
Mitglied	-9358
▁Wohnung	-9359
▁Las	-9360
▁dennoch	-9361
▁Foto	-9362
▁diplomat	-9363
▁ober	-9364
▁appeal	-9365
version	-9366
▁Laufe	-9367
▁Turkish	-9368
▁eingereicht	-9369
▁unless	-9370
ague	-9371
ibrary	-9372
government	-9373
▁forced	-9374
▁schwerwie	-9375
utzung	-9376
▁occasion	-9377
▁votes	-9378
▁asylum	-9379
pft	-9380
▁sle	-9381
▁letztendlich	-9382
▁ehemaligen	-9383
erei	-9384
▁8.	-9385
▁geleistet	-9386
▁closer	-9387
selben	-9388
▁Key	-9389
▁zahlreichen	-9390
road	-9391
▁20%	-9392
▁Registr	-9393
▁Nachdem	-9394
▁enables	-9395
▁Nichtraucher	-9396
▁insurance	-9397
▁hingewiesen	-9398
ointed	-9399
ungsprozess	-9400
bad	-9401
punkte	-9402
EU	-9403
posit	-9404
▁charged	-9405
▁massive	-9406
▁Flexibilität	-9407
▁Irland	-9408
▁definit	-9409
▁darstellen	-9410
behörden	-9411
▁Bil	-9412
▁0,	-9413
▁Vo	-9414
▁unfortunately	-9415
▁defic	-9416
▁individuals	-9417
onia	-9418
▁cars	-9419
▁WLAN	-9420
▁harm	-9421
▁Partnerschaft	-9422
▁aufmerksam	-9423
▁vision	-9424
▁devices	-9425
▁eigent	-9426
▁enormous	-9427
▁medizin	-9428
eto	-9429
fsbereit	-9430
▁entertain	-9431
▁relativ	-9432
läuf	-9433
Script	-9434
▁zweifellos	-9435
▁command	-9436
▁entitled	-9437
▁amerikanischen	-9438
▁Institute	-9439
▁praktisch	-9440
▁einver	-9441
▁entschieden	-9442
▁cards	-9443
▁claims	-9444
▁u	-9445
ington	-9446
▁completed	-9447
▁except	-9448
Ge	-9449
▁Link	-9450
▁Mittelmeer	-9451
▁kam	-9452
plans	-9453
rance	-9454
istisch	-9455
ador	-9456
▁21.	-9457
ählten	-9458
▁vieler	-9459
▁attach	-9460
nam	-9461
▁Paket	-9462
ista	-9463
▁teilweise	-9464
atever	-9465
▁Greek	-9466
▁corporate	-9467
gebaut	-9468
▁Pop	-9469
▁Taus	-9470
hilfen	-9471
iam	-9472
rüstung	-9473
▁nachhaltige	-9474
▁Media	-9475
▁perspective	-9476
▁grie	-9477
▁CH	-9478
▁Win	-9479
▁White	-9480
versorgung	-9481
onial	-9482
yright	-9483
▁vorschlagen	-9484
▁gelie	-9485
▁Nether	-9486
▁Nutzen	-9487
imal	-9488
▁verlieren	-9489
hmin	-9490
▁mission	-9491
▁geeignet	-9492
▁Nav	-9493
▁PDF	-9494
▁1980	-9495
iche	-9496
17	-9497
▁Niederl	-9498
▁ausreich	-9499
▁born	-9500
▁packages	-9501
▁glass	-9502
▁Vienna	-9503
▁nationaler	-9504
▁exklus	-9505
▁surrounding	-9506
▁disease	-9507
▁12.	-9508
▁Mun	-9509
▁dispos	-9510
▁bestätigt	-9511
grün	-9512
▁türk	-9513
▁booking	-9514
▁Gebiete	-9515
utch	-9516
ny	-9517
▁Gehmin	-9518
▁ausdrücklich	-9519
▁Jedes	-9520
▁täglich	-9521
▁taste	-9522
▁exercise	-9523
▁Hinweis	-9524
▁bekommen	-9525
▁legitim	-9526
zubauen	-9527
▁anbieten	-9528
ielte	-9529
▁arrival	-9530
▁coffee	-9531
▁delic	-9532
▁sides	-9533
fahrens	-9534
▁deutsche	-9535
▁wirksam	-9536
uters	-9537
▁meant	-9538
▁100%	-9539
▁unbedingt	-9540
▁Another	-9541
enkt	-9542
▁aufzunehmen	-9543
▁Verwenden	-9544
▁diss	-9545
AG	-9546
da	-9547
▁pure	-9548
▁ECU	-9549
ikal	-9550
▁establishing	-9551
▁revolution	-9552
ategorie	-9553
▁weapons	-9554
condition	-9555
▁Architektur	-9556
▁factors	-9557
▁Europäer	-9558
▁beauty	-9559
▁intervention	-9560
ido	-9561
▁Mat	-9562
▁einfachen	-9563
▁ausgeführt	-9564
▁Meeres	-9565
▁approxim	-9566
abl	-9567
▁gewinnen	-9568
ilst	-9569
")	-9570
▁wealth	-9571
▁sorgfältig	-9572
linge	-9573
▁ausländ	-9574
▁Ordnung	-9575
▁stands	-9576
▁Premier	-9577
▁micro	-9578
bett	-9579
▁wichtiges	-9580
▁earth	-9581
▁sn	-9582
▁schlecht	-9583
auert	-9584
aration	-9585
▁Wall	-9586
▁mittl	-9587
▁biggest	-9588
500	-9589
sam	-9590
▁cur	-9591
heits	-9592
▁dienen	-9593
▁gewesen	-9594
wirtschaften	-9595
▁engl	-9596
▁Abschnitt	-9597
comm	-9598
▁Grenz	-9599
▁contrary	-9600
gefügt	-9601
▁Diskussionen	-9602
▁dedicated	-9603
▁niemand	-9604
appe	-9605
force	-9606
▁outcome	-9607
▁convinced	-9608
omas	-9609
iffer	-9610
▁compared	-9611
▁urgent	-9612
▁konstru	-9613
▁ru	-9614
▁Manager	-9615
▁starken	-9616
▁Regulation	-9617
▁registered	-9618
▁surface	-9619
ierender	-9620
▁liter	-9621
▁Foreign	-9622
▁10%	-9623
▁Beach	-9624
allel	-9625
▁sale	-9626
▁nearby	-9627
▁Achtung	-9628
örung	-9629
▁controls	-9630
ario	-9631
▁Plen	-9632
▁nachdrücklich	-9633
▁Hamburg	-9634
▁reliable	-9635
▁Eastern	-9636
▁satell	-9637
▁Stimmen	-9638
ancial	-9639
▁solcher	-9640
verse	-9641
▁scale	-9642
▁benach	-9643
▁Lizenz	-9644
uchten	-9645
ungsverfahren	-9646
angt	-9647
▁wettbewerbs	-9648
▁hy	-9649
▁serviert	-9650
▁Syn	-9651
▁USB	-9652
▁seven	-9653
▁Bla	-9654
▁meters	-9655
▁science	-9656
gu	-9657
▁PPE	-9658
▁Fire	-9659
▁tatsäch	-9660
▁tätig	-9661
eds	-9662
▁Prozent	-9663
▁Studio	-9664
▁perfekte	-9665
”,	-9666
▁sod	-9667
▁Lake	-9668
▁holidays	-9669
▁Farben	-9670
▁ausz	-9671
▁0.	-9672
▁gespe	-9673
sequent	-9674
▁zuverläss	-9675
▁18.	-9676
▁Fel	-9677
▁advertising	-9678
▁EG	-9679
▁court	-9680
▁river	-9681
▁unable	-9682
vorschlag	-9683
▁commitments	-9684
▁gemüt	-9685
▁motiv	-9686
▁core	-9687
▁setzt	-9688
▁fruit	-9689
▁Marketing	-9690
▁story	-9691
▁button	-9692
▁kleiner	-9693
▁Gehminuten	-9694
▁Pic	-9695
▁granted	-9696
alia	-9697
▁kept	-9698
▁decades	-9699
▁Unterschiede	-9700
▁andel	-9701
▁grant	-9702
▁notice	-9703
▁learning	-9704
▁Day	-9705
▁highlight	-9706
▁Nevertheless	-9707
▁Grundsätze	-9708
iendly	-9709
inder	-9710
▁zusätzlichen	-9711
▁Koordinierung	-9712
▁betreffen	-9713
xts	-9714
▁Rome	-9715
▁totally	-9716
▁verbringen	-9717
▁steigen	-9718
MS	-9719
oring	-9720
▁Back	-9721
▁Relig	-9722
▁letzter	-9723
▁session	-9724
▁conclusions	-9725
▁relaxing	-9726
▁installed	-9727
iov	-9728
▁echten	-9729
▁Zahlen	-9730
▁jungen	-9731
▁wesentlicher	-9732
▁musste	-9733
▁angemessene	-9734
▁square	-9735
▁verfügbaren	-9736
▁lokale	-9737
▁prison	-9738
olo	-9739
▁extended	-9740
▁storage	-9741
▁31	-9742
krat	-9743
▁Jahrzehn	-9744
page	-9745
▁Mond	-9746
▁Bahnhof	-9747
▁(19	-9748
iern	-9749
▁passed	-9750
EG	-9751
kan	-9752
fehl	-9753
▁Blog	-9754
▁Latin	-9755
▁Netherlands	-9756
▁moving	-9757
▁hilfsbereit	-9758
▁ausgewo	-9759
▁Wi	-9760
▁beträgt	-9761
▁landwirtschaft	-9762
▁forth	-9763
▁definition	-9764
▁veget	-9765
actions	-9766
▁qualit	-9767
▁Hälfte	-9768
▁candidate	-9769
▁sel	-9770
▁schließen	-9771
▁konzentriert	-9772
proble	-9773
▁Fortschritt	-9774
orient	-9775
ssystem	-9776
▁memory	-9777
▁Übersetz	-9778
jährige	-9779
▁kontakt	-9780
▁5-	-9781
▁Gegenteil	-9782
▁betont	-9783
ansion	-9784
▁hum	-9785
orial	-9786
iegelt	-9787
▁toler	-9788
Adresse	-9789
▁destroy	-9790
▁32	-9791
▁Ruhe	-9792
▁Gesetze	-9793
▁Control	-9794
▁ster	-9795
▁THE	-9796
▁2009.	-9797
▁Third	-9798
▁chair	-9799
▁natürlichen	-9800
▁dir	-9801
sein	-9802
▁beob	-9803
ktop	-9804
▁erweitert	-9805
▁Som	-9806
auftrag	-9807
▁Custom	-9808
▁Lord	-9809
▁Vorteil	-9810
▁neither	-9811
▁{{	-9812
▁shop	-9813
▁Potenzial	-9814
oret	-9815
▁poten	-9816
▁device	-9817
▁erörtert	-9818
▁umzusetzen	-9819
▁Book	-9820
▁drawn	-9821
▁Ausgang	-9822
itage	-9823
vereign	-9824
▁targets	-9825
▁Wiederauf	-9826
▁expression	-9827
örter	-9828
sichts	-9829
▁Veranstaltungen	-9830
uble	-9831
▁bezieht	-9832
▁sovereign	-9833
▁Gent	-9834
▁erwähnen	-9835
▁Verständnis	-9836
▁railway	-9837
gelt	-9838
▁tief	-9839
▁Benutz	-9840
▁Agentur	-9841
ih	-9842
▁Rh	-9843
▁Chem	-9844
üg	-9845
▁Völker	-9846
spolitik	-9847
▁Methoden	-9848
itar	-9849
UN	-9850
▁cra	-9851
▁tried	-9852
▁Aspekt	-9853
▁drop	-9854
▁fühlen	-9855
▁Peter	-9856
▁("	-9857
akete	-9858
▁ging	-9859
▁achieving	-9860
zil	-9861
▁advice	-9862
▁Teilnahme	-9863
▁ambitious	-9864
▁gram	-9865
▁Agency	-9866
▁Thus	-9867
Programm	-9868
wechs	-9869
jet	-9870
▁beiz	-9871
▁berecht	-9872
▁Po	-9873
▁secret	-9874
▁condemn	-9875
▁authent	-9876
▁Inc	-9877
▁Austrian	-9878
▁Gaz	-9879
▁reservation	-9880
▁Zoll	-9881
▁rightly	-9882
üben	-9883
▁elegan	-9884
▁Croat	-9885
▁analy	-9886
▁Aufnahme	-9887
▁mountains	-9888
▁obligations	-9889
zig	-9890
▁Berichterstat	-9891
▁Wander	-9892
▁limits	-9893
▁investig	-9894
▁unit	-9895
bezogenen	-9896
▁personen	-9897
▁ehrgeiz	-9898
▁elected	-9899
▁ultim	-9900
▁Studien	-9901
▁attractions	-9902
▁Rand	-9903
▁Küste	-9904
▁Glas	-9905
▁Martin	-9906
▁payments	-9907
▁gere	-9908
lechter	-9909
▁Rem	-9910
abilität	-9911
▁laid	-9912
▁Palace	-9913
▁denken	-9914
▁Show	-9915
▁liefern	-9916
asters	-9917
▁Mangel	-9918
▁verwand	-9919
▁regionale	-9920
▁Constitution	-9921
ruf	-9922
▁Schlafzimmer	-9923
▁trend	-9924
▁window	-9925
abilities	-9926
▁independence	-9927
▁Veränderungen	-9928
▁Dimension	-9929
▁dimension	-9930
istor	-9931
▁Damit	-9932
▁rob	-9933
▁Bis	-9934
▁goals	-9935
ancy	-9936
▁Lag	-9937
8)	-9938
▁chosen	-9939
▁win	-9940
▁kurzen	-9941
▁Klimawandel	-9942
▁Phase	-9943
▁Führung	-9944
ismen	-9945
NL	-9946
▁gelangen	-9947
▁abgele	-9948
ilot	-9949
▁trägt	-9950
▁Kommissions	-9951
▁ursprünglichen	-9952
▁komplett	-9953
iced	-9954
▁Sur	-9955
▁Wand	-9956
/2	-9957
▁honourable	-9958
▁Where	-9959
▁maintenance	-9960
▁pet	-9961
▁sam	-9962
▁fried	-9963
▁voller	-9964
▁Veranstaltung	-9965
▁Alter	-9966
▁natur	-9967
▁continuing	-9968
▁guter	-9969
TP	-9970
▁Amerika	-9971
with	-9972
▁jemand	-9973
reichung	-9974
▁Journal	-9975
▁chemical	-9976
alty	-9977
▁surv	-9978
rohung	-9979
▁wunderschönen	-9980
▁prospect	-9981
anim	-9982
lager	-9983
▁agency	-9984
▁Spazier	-9985
▁Ros	-9986
▁Militär	-9987
Sp	-9988
reibt	-9989
▁communities	-9990
▁Refer	-9991
▁Royal	-9992
▁Tisch	-9993
▁Korea	-9994
▁Garden	-9995
▁artists	-9996
-3	-9997
▁sodass	-9998
ask	-9999
▁Badezimmer	-10000
SL	-10001
▁weight	-10002
▁ländlichen	-10003
▁Deutsche	-10004
▁perfectly	-10005
SQL	-10006
▁9.	-10007
▁Hauptstadt	-10008
▁Betrie	-10009
era	-10010
governmental	-10011
▁zurückzuführen	-10012
sequently	-10013
▁equality	-10014
▁schneller	-10015
▁persönlich	-10016
▁Autob	-10017
Ex	-10018
ickt	-10019
▁obviously	-10020
schau	-10021
▁betroffenen	-10022
▁ries	-10023
▁ideale	-10024
▁Express	-10025
cling	-10026
PC	-10027
▁patent	-10028
▁Special	-10029
erry	-10030
▁Data	-10031
▁reject	-10032
45	-10033
▁doll	-10034
▁höchste	-10035
▁constantly	-10036
log	-10037
atible	-10038
▁Wald	-10039
▁saw	-10040
▁guide	-10041
▁Summit	-10042
▁Presse	-10043
▁mode	-10044
▁organization	-10045
Fi	-10046
partei	-10047
▁Ansichten	-10048
▁selten	-10049
▁arbeitet	-10050
Or	-10051
trib	-10052
leiten	-10053
▁distin	-10054
nach	-10055
▁Orte	-10056
▁15.	-10057
▁Effizienz	-10058
▁niedrig	-10059
▁colleague	-10060
▁sell	-10061
▁Nahen	-10062
▁nearly	-10063
▁größeren	-10064
▁36	-10065
▁bound	-10066
▁AR	-10067
losen	-10068
▁Verbesser	-10069
pair	-10070
▁Außerdem	-10071
▁entlang	-10072
▁Abgeordnete	-10073
gas	-10074
▁erw	-10075
▁neun	-10076
apers	-10077
▁entsprechenden	-10078
▁irgend	-10079
▁merely	-10080
▁1995	-10081
▁sched	-10082
▁nar	-10083
▁danke	-10084
▁historische	-10085
▁fordert	-10086
▁interface	-10087
zin	-10088
scht	-10089
▁Ausfl	-10090
▁Island	-10091
▁Spaß	-10092
▁Hoffnung	-10093
▁situations	-10094
▁Bewer	-10095
▁expenditure	-10096
▁spezielle	-10097
▁successfully	-10098
▁Kunde	-10099
▁luxury	-10100
▁Sun	-10101
obility	-10102
look	-10103
▁golf	-10104
▁Angst	-10105
▁Quest	-10106
▁appar	-10107
▁Eth	-10108
▁vehicle	-10109
▁TM	-10110
akers	-10111
▁physical	-10112
▁outstanding	-10113
umer	-10114
▁sensitive	-10115
▁geschrieben	-10116
otten	-10117
▁organised	-10118
hnung	-10119
▁asking	-10120
▁Diskriminierung	-10121
▁Digital	-10122
▁Alliance	-10123
istik	-10124
▁yesterday	-10125
iquid	-10126
▁Putin	-10127
▁magn	-10128
ky	-10129
▁willkommen	-10130
▁Süden	-10131
▁griech	-10132
tellect	-10133
informationen	-10134
▁Folge	-10135
▁sieben	-10136
▁Palestinian	-10137
▁reve	-10138
▁changing	-10139
ela	-10140
erie	-10141
okument	-10142
▁race	-10143
▁recovery	-10144
,”	-10145
icken	-10146
▁correspond	-10147
▁balanced	-10148
▁Halb	-10149
▁17.	-10150
▁Gest	-10151
▁Revolution	-10152
uropa	-10153
▁Grundrechte	-10154
▁jour	-10155
."	-10156
▁Hil	-10157
▁prä	-10158
▁Empfehlungen	-10159
▁rock	-10160
passen	-10161
▁assum	-10162
▁beabsicht	-10163
▁weiteres	-10164
organisationen	-10165
▁Alban	-10166
▁demokratische	-10167
▁Methode	-10168
▁Square	-10169
▁--	-10170
odes	-10171
cast	-10172
▁Weiter	-10173
▁colour	-10174
allery	-10175
▁resulting	-10176
▁vulner	-10177
rem	-10178
ielleicht	-10179
ifications	-10180
▁recommendations	-10181
▁ID	-10182
▁genet	-10183
unktions	-10184
▁route	-10185
▁Erwart	-10186
▁Gegend	-10187
▁kommer	-10188
▁Verteidigungs	-10189
▁falls	-10190
▁Schulden	-10191
▁update	-10192
▁erneuer	-10193
Vers	-10194
▁contents	-10195
▁aufzu	-10196
▁).	-10197
ía	-10198
istry	-10199
leitung	-10200
▁species	-10201
passt	-10202
▁mechanism	-10203
▁acts	-10204
folio	-10205
▁Rezeption	-10206
▁Heimat	-10207
▁Landwirte	-10208
▁Those	-10209
▁causes	-10210
▁cool	-10211
▁intention	-10212
iglich	-10213
▁governance	-10214
▁diesbe	-10215
▁attacks	-10216
▁Reich	-10217
▁Regierungsche	-10218
▁bringing	-10219
zed	-10220
▁4,	-10221
▁250	-10222
UT	-10223
▁spezial	-10224
▁Freunde	-10225
▁Umständen	-10226
▁philosoph	-10227
▁einverstanden	-10228
▁title	-10229
igned	-10230
▁ther	-10231
▁leiden	-10232
▁someone	-10233
▁Jose	-10234
▁flight	-10235
azität	-10236
▁Andre	-10237
▁Messe	-10238
▁putting	-10239
▁seeking	-10240
▁convention	-10241
▁surrounded	-10242
▁III	-10243
▁sem	-10244
▁beliebt	-10245
▁Bol	-10246
▁Nik	-10247
▁Rich	-10248
▁enhan	-10249
ispiele	-10250
▁aircraft	-10251
▁Zugriff	-10252
▁capt	-10253
▁leads	-10254
▁Bio	-10255
▁einzigartige	-10256
ireless	-10257
--	-10258
ragt	-10259
▁manufacturing	-10260
▁Atom	-10261
▁proportion	-10262
▁Kopf	-10263
wers	-10264
inuier	-10265
▁beruht	-10266
tte	-10267
gestimmt	-10268
▁prevention	-10269
▁Altstadt	-10270
▁smaller	-10271
▁vernünft	-10272
gro	-10273
▁fuel	-10274
▁Steuern	-10275
▁strengthening	-10276
ällt	-10277
idung	-10278
▁cheap	-10279
▁ersch	-10280
▁preserv	-10281
▁thereby	-10282
▁organisiert	-10283
▁dynamic	-10284
▁Fax	-10285
▁Both	-10286
▁contained	-10287
▁EN	-10288
▁..."	-10289
▁festgelegten	-10290
pol	-10291
▁Inseln	-10292
▁refugees	-10293
▁Teilnehmer	-10294
▁koordin	-10295
▁pointed	-10296
▁participants	-10297
apter	-10298
▁persönliche	-10299
▁nav	-10300
▁landscape	-10301
▁prosper	-10302
▁Beob	-10303
ulating	-10304
uttle	-10305
▁jeweiligen	-10306
▁2010.	-10307
....	-10308
uchte	-10309
▁Konflik	-10310
fers	-10311
▁Rotary	-10312
▁GDP	-10313
▁Energy	-10314
▁factor	-10315
▁Slow	-10316
▁Que	-10317
▁Haut	-10318
▁grundlegende	-10319
ending	-10320
▁senken	-10321
▁geboren	-10322
▁erleichtern	-10323
▁category	-10324
▁accessible	-10325
▁Kor	-10326
rist	-10327
▁disposal	-10328
26	-10329
abled	-10330
▁Wechsel	-10331
▁Kreat	-10332
▁operate	-10333
▁Antworten	-10334
▁bereitgestellt	-10335
isses	-10336
inning	-10337
▁Graf	-10338
▁bran	-10339
reitung	-10340
cco	-10341
▁capable	-10342
▁primary	-10343
utr	-10344
▁Lö	-10345
pakt	-10346
▁store	-10347
▁photos	-10348
▁consists	-10349
▁Forderung	-10350
▁garantieren	-10351
dienste	-10352
path	-10353
▁Aktion	-10354
▁retain	-10355
▁lediglich	-10356
▁guaranteed	-10357
▁Kenntnis	-10358
▁approximately	-10359
▁School	-10360
▁extreme	-10361
▁identity	-10362
▁Zuf	-10363
▁Fischer	-10364
irmed	-10365
▁Vermögen	-10366
▁Besorgnis	-10367
▁planned	-10368
▁Ban	-10369
▁möglichen	-10370
▁spezifischen	-10371
▁Bedarf	-10372
▁investments	-10373
▁traditionelle	-10374
ipe	-10375
isure	-10376
▁religi	-10377
wachstum	-10378
onte	-10379
▁fraud	-10380
▁submit	-10381
▁grounds	-10382
ando	-10383
ipal	-10384
▁Klein	-10385
beziehung	-10386
▁wichtigste	-10387
▁erf	-10388
▁slight	-10389
▁leadership	-10390
▁untersuchen	-10391
▁Charter	-10392
▁consensus	-10393
▁Bereitstellung	-10394
▁grün	-10395
▁waiting	-10396
▁industries	-10397
wal	-10398
▁conclude	-10399
sprach	-10400
▁Mü	-10401
holung	-10402
▁Vereinbarungen	-10403
▁vereinbar	-10404
▁;	-10405
▁swe	-10406
▁David	-10407
▁River	-10408
▁count	-10409
produktion	-10410
▁valu	-10411
▁Spiele	-10412
code	-10413
▁BM	-10414
▁Rules	-10415
▁Eltern	-10416
▁Vielleicht	-10417
▁truth	-10418
hebung	-10419
strategie	-10420
▁examples	-10421
▁brings	-10422
▁Gründ	-10423
▁Chamber	-10424
▁MEP	-10425
▁explain	-10426
glieder	-10427
iensten	-10428
▁früheren	-10429
▁entschlossen	-10430
▁Via	-10431
▁glad	-10432
ähren	-10433
▁quot	-10434
bürger	-10435
▁surpr	-10436
▁Sweden	-10437
konom	-10438
▁aufgefordert	-10439
▁buffet	-10440
CC	-10441
DR	-10442
▁acceptable	-10443
▁notwendigen	-10444
▁las	-10445
▁divid	-10446
▁Grenze	-10447
▁dete	-10448
7)	-10449
▁unmöglich	-10450
▁safeguard	-10451
▁afford	-10452
De	-10453
▁erlaub	-10454
▁Know	-10455
griffe	-10456
▁kulturelle	-10457
▁Kommentare	-10458
:30	-10459
-200	-10460
▁16.	-10461
▁Prüfung	-10462
▁Vertrie	-10463
▁besorgt	-10464
BS	-10465
▁Definition	-10466
ungsbereich	-10467
Se	-10468
▁tie	-10469
▁Dokumente	-10470
▁Press	-10471
▁Aufbau	-10472
▁Bosn	-10473
ktivität	-10474
▁Tit	-10475
▁Kranken	-10476
▁Internationalen	-10477
▁earn	-10478
▁Karten	-10479
Software	-10480
▁beschrieben	-10481
▁hinzugefügt	-10482
▁bio	-10483
▁Dublin	-10484
▁contemporary	-10485
▁interessiert	-10486
▁lake	-10487
venue	-10488
▁Infl	-10489
▁Zustand	-10490
verkehrs	-10491
▁Cypr	-10492
▁driving	-10493
▁addressed	-10494
Chr	-10495
▁Financial	-10496
▁entdecken	-10497
▁Regierungschefs	-10498
▁Class	-10499
▁führenden	-10500
▁Tax	-10501
▁Os	-10502
▁club	-10503
produkte	-10504
annung	-10505
▁Argent	-10506
▁13.	-10507
▁patients	-10508
gien	-10509
▁systemat	-10510
▁Formular	-10511
▁southern	-10512
▁Datenschutz	-10513
▁Fraktionen	-10514
▁Regime	-10515
▁consolid	-10516
▁besseren	-10517
cap	-10518
▁umfass	-10519
kret	-10520
asche	-10521
flächen	-10522
▁erfordern	-10523
▁Reisen	-10524
Unter	-10525
Ro	-10526
▁Jean	-10527
ammeln	-10528
▁ungefähr	-10529
proz	-10530
▁Krie	-10531
▁association	-10532
▁Urs	-10533
▁Tai	-10534
▁dage	-10535
▁Haushalt	-10536
▁pill	-10537
▁Maria	-10538
▁Kandid	-10539
▁registration	-10540
▁JavaScript	-10541
▁hält	-10542
▁schools	-10543
▁territorial	-10544
▁schn	-10545
▁adequate	-10546
▁write	-10547
ipping	-10548
▁Tool	-10549
▁Konz	-10550
▁imper	-10551
▁funktionieren	-10552
▁underg	-10553
uver	-10554
▁Genehmigung	-10555
▁explan	-10556
enntnisse	-10557
▁anhalten	-10558
▁Einwanderung	-10559
▁Begriff	-10560
rest	-10561
▁letter	-10562
▁OS	-10563
▁wirksame	-10564
ungsk	-10565
▁technological	-10566
▁kontinuier	-10567
▁pleasure	-10568
lebt	-10569
▁Div	-10570
▁thre	-10571
atlant	-10572
stoffen	-10573
ändler	-10574
▁talks	-10575
▁Ausland	-10576
▁hilft	-10577
▁sets	-10578
▁Ungleich	-10579
ource	-10580
▁Kurs	-10581
▁spaces	-10582
▁dur	-10583
▁siehe	-10584
▁steel	-10585
enses	-10586
▁essen	-10587
▁kurze	-10588
▁incorpor	-10589
▁Subs	-10590
▁rig	-10591
▁zone	-10592
▁genehm	-10593
real	-10594
▁print	-10595
▁zurückzu	-10596
▁primarily	-10597
▁erleben	-10598
▁furnished	-10599
▁Optionen	-10600
going	-10601
ruption	-10602
▁formal	-10603
▁minute	-10604
▁nations	-10605
▁Brazil	-10606
▁Wesent	-10607
▁liability	-10608
▁regret	-10609
▁multiple	-10610
car	-10611
▁irre	-10612
▁gekommen	-10613
fa	-10614
place	-10615
▁Mail	-10616
▁previously	-10617
▁Chinas	-10618
▁Romania	-10619
border	-10620
▁satellite	-10621
..."	-10622
▁Karl	-10623
Aus	-10624
▁na	-10625
finanz	-10626
esented	-10627
alys	-10628
passung	-10629
▁discussing	-10630
klass	-10631
akzept	-10632
▁kommun	-10633
td	-10634
oster	-10635
▁phase	-10636
▁Enjoy	-10637
meister	-10638
entscheid	-10639
▁kinds	-10640
▁grammat	-10641
▁Arbeitsmarkt	-10642
▁Valle	-10643
▁Good	-10644
▁sec	-10645
lesen	-10646
▁vorlie	-10647
▁sanctions	-10648
▁dep	-10649
▁turned	-10650
zne	-10651
▁Jac	-10652
▁determined	-10653
pace	-10654
▁800	-10655
lles	-10656
▁fashion	-10657
▁band	-10658
▁Angel	-10659
zwungen	-10660
enture	-10661
▁Unterschied	-10662
schlag	-10663
erkennen	-10664
essor	-10665
▁eight	-10666
▁therm	-10667
▁verfolgt	-10668
▁italienischen	-10669
▁direkte	-10670
▁Minderheiten	-10671
▁Viertel	-10672
▁Krimin	-10673
▁representative	-10674
▁BIP	-10675
▁Hong	-10676
▁Feld	-10677
tellectual	-10678
▁journal	-10679
▁Fein	-10680
▁mel	-10681
ränkt	-10682
▁orient	-10683
▁tran	-10684
▁Zimmern	-10685
▁zurückge	-10686
▁5,	-10687
▁Two	-10688
▁inhab	-10689
quellen	-10690
▁begonnen	-10691
▁les	-10692
gence	-10693
▁Akte	-10694
▁Despite	-10695
ränkungen	-10696
▁Old	-10697
▁Located	-10698
▁Prodi	-10699
35	-10700
▁Durchführung	-10701
ints	-10702
ischung	-10703
▁Perspekt	-10704
▁Suite	-10705
▁acht	-10706
▁Webs	-10707
lebnis	-10708
▁balcon	-10709
▁nation	-10710
Service	-10711
▁dagegen	-10712
uerung	-10713
▁Eurozone	-10714
▁Sanktionen	-10715
ieties	-10716
▁Schwar	-10717
▁accounts	-10718
▁transform	-10719
]],	-10720
▁mechanisms	-10721
aks	-10722
▁disch	-10723
▁mutual	-10724
▁umfassenden	-10725
▁Dutch	-10726
▁horiz	-10727
▁flow	-10728
▁Norden	-10729
75	-10730
EW	-10731
▁bars	-10732
fällen	-10733
▁einzigartigen	-10734
heber	-10735
▁attend	-10736
▁gebeten	-10737
▁üb	-10738
▁Expl	-10739
▁Thanks	-10740
▁sofern	-10741
▁remove	-10742
▁einzelne	-10743
▁hervorheben	-10744
Ein	-10745
verw	-10746
annes	-10747
▁testing	-10748
▁Ty	-10749
▁Rumän	-10750
▁barr	-10751
Tra	-10752
▁conduct	-10753
▁Ep	-10754
ete	-10755
äume	-10756
▁Studenten	-10757
▁Leitlinien	-10758
▁une	-10759
▁dich	-10760
▁auswählen	-10761
▁Follow	-10762
▁Schloss	-10763
▁Kategorie	-10764
▁48	-10765
öger	-10766
▁pun	-10767
▁Britain	-10768
eller	-10769
mechan	-10770
▁Egypt	-10771
▁delivered	-10772
▁Law	-10773
▁dritte	-10774
kunden	-10775
▁pension	-10776
▁Los	-10777
▁orders	-10778
▁Arme	-10779
▁gestalten	-10780
ädt	-10781
▁getr	-10782
▁Welche	-10783
▁hyd	-10784
▁blue	-10785
▁Falle	-10786
▁prepare	-10787
▁Beispiele	-10788
▁repeated	-10789
▁Liberalisierung	-10790
▁Westen	-10791
▁abgelehnt	-10792
fest	-10793
▁fif	-10794
▁password	-10795
icon	-10796
uführen	-10797
AB	-10798
▁Berücksicht	-10799
▁Hor	-10800
▁Korr	-10801
▁Entwurf	-10802
▁versions	-10803
▁requested	-10804
▁waters	-10805
▁angegebenen	-10806
maschinen	-10807
wood	-10808
UM	-10809
▁evaluation	-10810
▁2009,	-10811
▁dealt	-10812
brigen	-10813
uzz	-10814
▁Church	-10815
▁Programms	-10816
erechtigkeit	-10817
▁vert	-10818
▁ta	-10819
▁190	-10820
▁Govern	-10821
▁dritten	-10822
▁Genießen	-10823
▁diversity	-10824
ciliation	-10825
▁Flash	-10826
schirm	-10827
▁fantast	-10828
▁bekämpfen	-10829
▁Geräte	-10830
▁significantly	-10831
istenz	-10832
cluding	-10833
plicit	-10834
▁Arbeitsplätzen	-10835
▁Tim	-10836
▁master	-10837
▁attemp	-10838
folged	-10839
iry	-10840
folgedessen	-10841
regel	-10842
▁120	-10843
▁gemein	-10844
▁Freizeit	-10845
▁unanim	-10846
▁fed	-10847
▁umwelt	-10848
▁Erde	-10849
▁hängt	-10850
▁zentrale	-10851
▁ausgewählt	-10852
▁doch	-10853
▁named	-10854
▁inakzept	-10855
▁opposite	-10856
erungs	-10857
▁Denk	-10858
▁copy	-10859
▁helping	-10860
chtet	-10861
ildet	-10862
▁Bor	-10863
▁Robert	-10864
▁installiert	-10865
▁menschlichen	-10866
▁Holl	-10867
▁lose	-10868
▁streng	-10869
nahm	-10870
▁reply	-10871
hop	-10872
▁Typ	-10873
▁Jack	-10874
EF	-10875
▁Lu	-10876
86	-10877
issens	-10878
▁Exec	-10879
weisungen	-10880
▁politicians	-10881
▁mix	-10882
bauen	-10883
▁launched	-10884
▁kontaktieren	-10885
ahnen	-10886
▁output	-10887
stud	-10888
anforderungen	-10889
otte	-10890
iating	-10891
▁estim	-10892
▁amongst	-10893
Ben	-10894
ikas	-10895
▁bureau	-10896
station	-10897
▁frühen	-10898
▁cm	-10899
stehenden	-10900
▁manufacturers	-10901
▁Forderungen	-10902
iary	-10903
▁taxes	-10904
▁belong	-10905
iana	-10906
▁Satell	-10907
Gen	-10908
oder	-10909
▁qualified	-10910
▁Admin	-10911
▁relatively	-10912
jection	-10913
▁Kommunikations	-10914
▁onto	-10915
▁urge	-10916
▁Niveau	-10917
▁geschä	-10918
bart	-10919
▁Erhö	-10920
▁vorbe	-10921
▁derzeitigen	-10922
fertigt	-10923
▁consultation	-10924
TE	-10925
▁lov	-10926
ulted	-10927
▁Verfass	-10928
arma	-10929
uries	-10930
behörde	-10931
▁Champ	-10932
▁improvements	-10933
▁korre	-10934
▁verbundenen	-10935
▁Bedrohung	-10936
▁beschleun	-10937
▁spezifische	-10938
rufen	-10939
▁Ref	-10940
▁knows	-10941
▁Jes	-10942
▁Bewegung	-10943
Auf	-10944
▁stolz	-10945
▁marked	-10946
rant	-10947
▁beeindruck	-10948
▁shape	-10949
itime	-10950
▁fand	-10951
utige	-10952
fähig	-10953
oni	-10954
▁blog	-10955
▁SD	-10956
▁Sud	-10957
▁mail	-10958
▁drugs	-10959
ählte	-10960
▁ausreichend	-10961
▁hervorragenden	-10962
▁Pflanzen	-10963
▁mussten	-10964
▁600	-10965
▁gewählt	-10966
ques	-10967
▁expectations	-10968
▁inten	-10969
▁Minutes	-10970
▁Zahlungs	-10971
▁rejected	-10972
für	-10973
▁reichen	-10974
▁definiert	-10975
▁Frem	-10976
▁George	-10977
▁moved	-10978
▁corner	-10979
▁veran	-10980
▁existence	-10981
▁Reduz	-10982
▁öffnen	-10983
▁Before	-10984
cin	-10985
▁snow	-10986
ichtete	-10987
termine	-10988
▁stattf	-10989
▁gebill	-10990
▁gesetzt	-10991
atre	-10992
täus	-10993
▁Zentr	-10994
▁heavy	-10995
anlagen	-10996
▁Anteil	-10997
handlungs	-10998
▁Eigenschaften	-10999
▁books	-11000
▁skin	-11001
▁Radio	-11002
▁Gewinn	-11003
det	-11004
ml	-11005
service	-11006
graben	-11007
▁blood	-11008
▁einsetzen	-11009
▁jur	-11010
▁einbezogen	-11011
amerika	-11012
▁Nachfrage	-11013
▁feeling	-11014
▁Wart	-11015
ady	-11016
▁Bestellung	-11017
iform	-11018
▁entgegen	-11019
▁Geschäfte	-11020
▁consistent	-11021
▁organisieren	-11022
▁Roh	-11023
▁Sinn	-11024
▁runs	-11025
▁erscheint	-11026
▁attitude	-11027
▁experiences	-11028
icherungs	-11029
▁compliance	-11030
▁Beam	-11031
▁Gemeinsamen	-11032
owned	-11033
▁Vorschlägen	-11034
SA	-11035
oples	-11036
▁dict	-11037
▁vergleich	-11038
weist	-11039
▁Rock	-11040
▁legen	-11041
▁Derzeit	-11042
atterin	-11043
enturen	-11044
▁Sprach	-11045
▁Schm	-11046
▁Kyoto	-11047
uden	-11048
▁wild	-11049
ameras	-11050
▁vorlegen	-11051
▁freundlich	-11052
▁Krankheiten	-11053
▁2011	-11054
grundlage	-11055
▁Einheit	-11056
repr	-11057
schäd	-11058
▁binding	-11059
▁1970	-11060
▁Caf	-11061
▁Dusche	-11062
ätzlich	-11063
▁ausgesetzt	-11064
MO	-11065
▁eye	-11066
SV	-11067
hängig	-11068
▁Ausgabe	-11069
▁Rechnung	-11070
▁Drittländern	-11071
sec	-11072
üter	-11073
▁Aussch	-11074
▁Branche	-11075
struction	-11076
▁näher	-11077
▁competence	-11078
▁obligation	-11079
▁strugg	-11080
▁expertise	-11081
▁{	-11082
▁Anti	-11083
▁dry	-11084
ergie	-11085
igerung	-11086
aces	-11087
▁Time	-11088
▁treated	-11089
▁alarm	-11090
schrift	-11091
▁expensive	-11092
▁resolve	-11093
▁unterschiedlich	-11094
▁Job	-11095
▁Sob	-11096
▁buchen	-11097
▁Bestandteil	-11098
▁Datenbank	-11099
einrichtungen	-11100
▁OF	-11101
▁vast	-11102
▁zuerst	-11103
temberaub	-11104
▁Amts	-11105
uing	-11106
aal	-11107
▁birth	-11108
▁largely	-11109
imittel	-11110
▁Garantie	-11111
▁Strukturfonds	-11112
zneimittel	-11113
▁Ka	-11114
▁Skype	-11115
▁compensation	-11116
▁hinsichtlich	-11117
alerie	-11118
▁Fälle	-11119
▁österreich	-11120
▁deutsch	-11121
▁Original	-11122
▁Schönheit	-11123
▁verabschied	-11124
pire	-11125
▁Kann	-11126
▁luxuri	-11127
▁Massen	-11128
▁Fenster	-11129
▁rechtlichen	-11130
▁Bauern	-11131
▁Munich	-11132
▁verabschiedet	-11133
TER	-11134
arium	-11135
▁feststellen	-11136
▁audio	-11137
▁default	-11138
▁Swed	-11139
▁wall	-11140
forschung	-11141
miss	-11142
▁subsidiar	-11143
▁permit	-11144
▁diseases	-11145
▁miteinander	-11146
▁Beziehung	-11147
▁Bildungs	-11148
▁verschiedener	-11149
▁Engine	-11150
▁beseitigen	-11151
▁whe	-11152
▁kostenlose	-11153
center	-11154
▁millions	-11155
▁Action	-11156
▁Take	-11157
ibliothek	-11158
▁requests	-11159
▁Balt	-11160
▁stone	-11161
▁braucht	-11162
▁threaten	-11163
▁Sens	-11164
▁Technology	-11165
▁eröffnet	-11166
▁Wash	-11167
▁Tom	-11168
▁voc	-11169
▁Sonn	-11170
AV	-11171
werks	-11172
▁cook	-11173
▁speakers	-11174
usal	-11175
▁streets	-11176
▁recognise	-11177
▁Ltd	-11178
▁Theater	-11179
▁emphasis	-11180
▁Joh	-11181
▁underm	-11182
▁straight	-11183
▁2008.	-11184
▁Tiere	-11185
▁sprach	-11186
male	-11187
▁Master	-11188
▁scheinen	-11189
▁ausreichen	-11190
▁represented	-11191
▁arms	-11192
▁helped	-11193
▁Sov	-11194
azine	-11195
Das	-11196
abling	-11197
▁Firma	-11198
▁Gästen	-11199
▁zählen	-11200
▁Handeln	-11201
▁spanischen	-11202
▁Like	-11203
▁sage	-11204
▁vess	-11205
▁Stunde	-11206
▁dan	-11207
▁folgende	-11208
▁Delegation	-11209
banken	-11210
▁Kaffee	-11211
▁britische	-11212
▁Frü	-11213
ipel	-11214
▁Direkt	-11215
▁id	-11216
▁affairs	-11217
▁president	-11218
ziellen	-11219
▁officials	-11220
märkte	-11221
▁switch	-11222
ochen	-11223
▁spot	-11224
itäre	-11225
▁privacy	-11226
▁TO	-11227
▁wait	-11228
▁units	-11229
▁inflation	-11230
▁Ausgangspunkt	-11231
reds	-11232
ossen	-11233
▁comply	-11234
,00	-11235
▁Disc	-11236
▁Schule	-11237
▁Studie	-11238
▁presentation	-11239
▁Autos	-11240
▁latter	-11241
▁approval	-11242
kop	-11243
▁danger	-11244
▁Tätigkeit	-11245
▁suffering	-11246
▁trial	-11247
▁großartige	-11248
▁speziellen	-11249
verletz	-11250
▁configur	-11251
▁Arm	-11252
▁websites	-11253
▁gefordert	-11254
bringen	-11255
▁Player	-11256
▁Konsens	-11257
▁keeping	-11258
▁Echtzeit	-11259
▁Wahrheit	-11260
pielt	-11261
▁exter	-11262
▁Innenstadt	-11263
▁disaster	-11264
▁exists	-11265
uds	-11266
▁exem	-11267
▁destination	-11268
▁Kontroll	-11269
▁Abendessen	-11270
teen	-11271
▁parlament	-11272
▁14.	-11273
▁überras	-11274
▁Fac	-11275
mäßige	-11276
▁Mach	-11277
▁empfohlen	-11278
▁mitteilen	-11279
▁enorme	-11280
▁extension	-11281
▁older	-11282
▁überall	-11283
▁Verbesserungen	-11284
▁Weiß	-11285
akten	-11286
▁Vermitt	-11287
▁Set	-11288
Fl	-11289
▁hall	-11290
agements	-11291
▁Anstieg	-11292
▁entered	-11293
▁Politiker	-11294
iets	-11295
oken	-11296
achte	-11297
fernen	-11298
▁erfolgen	-11299
▁Sat	-11300
▁obst	-11301
▁Urspr	-11302
▁piece	-11303
▁Papier	-11304
▁atemberaub	-11305
▁advantages	-11306
▁Fu	-11307
udes	-11308
▁Plaza	-11309
▁substances	-11310
▁rare	-11311
▁Debatten	-11312
▁geograph	-11313
▁whatever	-11314
lause	-11315
▁läng	-11316
▁Wählen	-11317
▁dishes	-11318
antly	-11319
▁Schwerpunkt	-11320
▁Ministers	-11321
▁Erwartungen	-11322
▁kontext	-11323
▁),	-11324
▁Faktoren	-11325
▁Dra	-11326
▁beruf	-11327
größ	-11328
▁Sto	-11329
▁browser	-11330
▁recommended	-11331
uste	-11332
▁Zwecke	-11333
▁gestern	-11334
inational	-11335
bring	-11336
▁geprü	-11337
27	-11338
▁Lou	-11339
▁Very	-11340
▁Armen	-11341
▁tests	-11342
▁happens	-11343
▁ausgestatte	-11344
▁Instead	-11345
▁applicable	-11346
▁arrangements	-11347
eting	-11348
▁positiven	-11349
▁Exp	-11350
erte	-11351
▁rot	-11352
stance	-11353
▁helps	-11354
zipl	-11355
▁Anpassung	-11356
▁lock	-11357
▁1994	-11358
▁proud	-11359
MA	-11360
reis	-11361
ought	-11362
▁Repr	-11363
hi	-11364
▁Betr	-11365
▁freie	-11366
oler	-11367
▁operators	-11368
▁engineering	-11369
pers	-11370
▁emphasise	-11371
▁Heiz	-11372
▁Paper	-11373
▁alter	-11374
▁charming	-11375
ani	-11376
nes	-11377
▁incent	-11378
gelassen	-11379
▁Zentralbank	-11380
▁verteidigen	-11381
▁33	-11382
ungssystem	-11383
▁Tw	-11384
▁zustimmen	-11385
far	-11386
▁involving	-11387
▁thor	-11388
▁complic	-11389
▁discharge	-11390
▁widersp	-11391
▁appreciate	-11392
anders	-11393
▁leisure	-11394
▁Heil	-11395
päck	-11396
▁Nachricht	-11397
▁delegation	-11398
▁respective	-11399
▁Tipp	-11400
ößen	-11401
▁nützlich	-11402
▁gespeichert	-11403
▁Pay	-11404
ilding	-11405
▁PR	-11406
hard	-11407
kommunik	-11408
▁Profession	-11409
▁ja	-11410
▁trees	-11411
▁gather	-11412
▁ordnungsgemäß	-11413
▁spricht	-11414
cell	-11415
▁schreck	-11416
▁Konsequ	-11417
▁renewable	-11418
▁valuable	-11419
49	-11420
▁komfortable	-11421
▁felt	-11422
emat	-11423
jo	-11424
▁auftreten	-11425
▁intellectual	-11426
ivals	-11427
▁conserv	-11428
▁Instit	-11429
▁Verletz	-11430
▁politisch	-11431
rock	-11432
iser	-11433
onomie	-11434
▁peoples	-11435
UNG	-11436
▁lag	-11437
▁schreiben	-11438
isc	-11439
▁enthus	-11440
▁opposed	-11441
▁foll	-11442
▁faced	-11443
▁schwierigen	-11444
▁finding	-11445
▁naturally	-11446
▁error	-11447
▁mobility	-11448
urger	-11449
▁Rent	-11450
▁objects	-11451
gg	-11452
▁adj	-11453
▁grundlegenden	-11454
▁ersetzt	-11455
Christ	-11456
▁personally	-11457
▁parad	-11458
▁durchzuführen	-11459
▁organizations	-11460
wareness	-11461
▁Mini	-11462
▁gezogen	-11463
▁wollten	-11464
▁MySQL	-11465
weisung	-11466
▁favor	-11467
phrase	-11468
Im	-11469
▁Schweden	-11470
▁Patent	-11471
▁exclusively	-11472
▁Riv	-11473
what	-11474
iegeln	-11475
▁spring	-11476
▁bewegen	-11477
▁bezahlen	-11478
zuschließen	-11479
istribution	-11480
▁flat	-11481
▁centres	-11482
▁Use	-11483
▁Berufs	-11484
▁Ausarbeitung	-11485
▁stamm	-11486
▁temperature	-11487
zza	-11488
▁stations	-11489
▁Puert	-11490
▁Offen	-11491
▁articles	-11492
▁ye	-11493
▁Tibet	-11494
▁Mission	-11495
▁Sound	-11496
igkeits	-11497
▁2-	-11498
▁figure	-11499
urm	-11500
trans	-11501
andon	-11502
▁künftige	-11503
uens	-11504
▁Monte	-11505
ikes	-11506
▁Dach	-11507
▁Airbus	-11508
▁whilst	-11509
▁bureauc	-11510
▁furniture	-11511
▁verkaufen	-11512
riere	-11513
▁dog	-11514
▁Wür	-11515
▁solve	-11516
odurch	-11517
▁Investitions	-11518
▁treten	-11519
IDS	-11520
▁determine	-11521
▁Polizei	-11522
▁Untersuchung	-11523
▁Respekt	-11524
▁künftigen	-11525
▁Malt	-11526
▁increases	-11527
urd	-11528
▁Ren	-11529
▁Schäden	-11530
▁Betriebs	-11531
▁firstly	-11532
gess	-11533
▁verdient	-11534
▁Executive	-11535
▁protecting	-11536
▁Agrarpolitik	-11537
▁thorough	-11538
▁Schweizer	-11539
asten	-11540
▁Resolution	-11541
▁....	-11542
▁treaty	-11543
▁Kong	-11544
▁antw	-11545
ikaner	-11546
▁Konsult	-11547
▁amounts	-11548
üren	-11549
Intern	-11550
▁Sektoren	-11551
▁Sad	-11552
▁Award	-11553
▁Gemeinde	-11554
▁recognised	-11555
▁strategies	-11556
netz	-11557
▁gült	-11558
▁Elect	-11559
ancen	-11560
▁obstac	-11561
▁Kat	-11562
▁Maße	-11563
▁Verträge	-11564
▁Hunder	-11565
▁adap	-11566
▁Zwei	-11567
▁Kommun	-11568
▁covers	-11569
▁fill	-11570
▁bemerk	-11571
kul	-11572
zentren	-11573
äsions	-11574
▁Einbeziehung	-11575
▁involvement	-11576
▁Cook	-11577
hängen	-11578
▁Safety	-11579
▁Willen	-11580
▁gehalten	-11581
▁Geschwindigkeit	-11582
irus	-11583
▁nennen	-11584
▁verwir	-11585
▁Klim	-11586
▁Präs	-11587
▁intend	-11588
vely	-11589
▁leaving	-11590
▁confirmed	-11591
▁Verteidigung	-11592
▁ow	-11593
igence	-11594
▁geschehen	-11595
obe	-11596
▁einfacher	-11597
▁Four	-11598
▁repeat	-11599
▁hochwertige	-11600
anger	-11601
isory	-11602
▁überwachen	-11603
▁hervorgehoben	-11604
west	-11605
Strategie	-11606
▁Franc	-11607
▁Strategy	-11608
▁Hans	-11609
▁Rab	-11610
▁({{	-11611
▁Wähl	-11612
▁wodurch	-11613
CS	-11614
▁Reduzierung	-11615
▁combating	-11616
nischen	-11617
uropäischen	-11618
spar	-11619
▁Liebe	-11620
apest	-11621
▁eingehalten	-11622
▁advoc	-11623
▁weather	-11624
▁Brasil	-11625
elm	-11626
▁schwed	-11627
▁mandate	-11628
▁Temperatur	-11629
▁Kolleg	-11630
▁temporary	-11631
▁KMU	-11632
▁journey	-11633
erechnet	-11634
▁Baum	-11635
▁texts	-11636
▁stake	-11637
tten	-11638
▁Fair	-11639
▁geist	-11640
▁Alternative	-11641
▁entertainment	-11642
greif	-11643
▁equally	-11644
▁Verk	-11645
actory	-11646
▁breat	-11647
▁offenen	-11648
▁criticism	-11649
▁directives	-11650
▁contro	-11651
▁weg	-11652
▁hair	-11653
▁Lager	-11654
▁obtained	-11655
▁sogenannten	-11656
▁Kreuz	-11657
▁hostels	-11658
▁plug	-11659
▁collective	-11660
▁Swedish	-11661
▁bedrooms	-11662
▁mögliche	-11663
▁passengers	-11664
▁contributions	-11665
uers	-11666
▁München	-11667
lege	-11668
ragend	-11669
elfare	-11670
führte	-11671
▁noise	-11672
▁Beweis	-11673
▁bekräft	-11674
▁Infolgedessen	-11675
ffekt	-11676
▁Jede	-11677
uption	-11678
▁Director	-11679
▁fighting	-11680
class	-11681
▁Straß	-11682
▁constructive	-11683
▁museum	-11684
liste	-11685
▁girl	-11686
▁hart	-11687
▁begrüßt	-11688
▁push	-11689
▁rank	-11690
adow	-11691
▁sicht	-11692
umping	-11693
▁Monetary	-11694
▁investors	-11695
▁discovered	-11696
▁Fer	-11697
▁creative	-11698
arkt	-11699
▁gelöst	-11700
▁offices	-11701
▁happening	-11702
tedly	-11703
gebracht	-11704
agon	-11705
▁unterb	-11706
▁Ohne	-11707
▁schafft	-11708
▁chain	-11709
▁beigetragen	-11710
,"	-11711
hrt	-11712
▁Farbe	-11713
▁worse	-11714
▁familiar	-11715
▁por	-11716
▁serves	-11717
▁Lim	-11718
holders	-11719
▁Japanese	-11720
kurr	-11721
▁sights	-11722
▁Ausstellung	-11723
▁vorgenommen	-11724
22	-11725
ram	-11726
▁Music	-11727
▁Leiden	-11728
▁abroad	-11729
▁legend	-11730
▁verdienen	-11731
▁Stahl	-11732
udi	-11733
äumt	-11734
seiten	-11735
▁remaining	-11736
▁multinational	-11737
▁leistungs	-11738
6)	-11739
icip	-11740
inations	-11741
idden	-11742
lieben	-11743
▁ausger	-11744
▁Washington	-11745
Mod	-11746
fel	-11747
}})	-11748
▁erhielt	-11749
▁Fehl	-11750
▁Mall	-11751
▁prev	-11752
▁Geschmack	-11753
▁Harmonisierung	-11754
▁impressive	-11755
▁looks	-11756
▁rational	-11757
▁Aktien	-11758
▁behoben	-11759
▁Identität	-11760
▁MS	-11761
nummer	-11762
▁bestätigen	-11763
PA	-11764
▁Welcome	-11765
▁removed	-11766
▁restrictions	-11767
iga	-11768
▁eyes	-11769
ochter	-11770
Daten	-11771
▁Verst	-11772
▁GNU	-11773
bereiche	-11774
beauftrag	-11775
▁natürliche	-11776
▁uneingeschränkt	-11777
gener	-11778
▁Bestell	-11779
▁gezwungen	-11780
▁exceptional	-11781
▁Signal	-11782
▁Sein	-11783
trägen	-11784
TS	-11785
▁Empfehlung	-11786
▁Nice	-11787
▁cold	-11788
▁healthy	-11789
▁reserves	-11790
▁verkauft	-11791
▁Proced	-11792
▁Rechtsstaat	-11793
bi	-11794
▁Bars	-11795
▁issued	-11796
stimmung	-11797
▁depends	-11798
▁Befugnisse	-11799
Der	-11800
▁cloth	-11801
▁verf	-11802
▁Schalt	-11803
▁Arzneimittel	-11804
▁reserve	-11805
▁Verhältnis	-11806
schm	-11807
werts	-11808
ranche	-11809
TML	-11810
modell	-11811
▁tours	-11812
▁heutige	-11813
▁contracts	-11814
▁prove	-11815
▁Anwend	-11816
▁Publik	-11817
▁spectac	-11818
▁communications	-11819
▁Soll	-11820
▁Secret	-11821
▁hoff	-11822
▁vari	-11823
▁decis	-11824
▁GB	-11825
Th	-11826
▁Their	-11827
gänglich	-11828
▁Aqu	-11829
▁Sauna	-11830
▁ermutigen	-11831
▁unvergess	-11832
ighten	-11833
bekämpfung	-11834
new	-11835
▁maß	-11836
▁Update	-11837
region	-11838
▁Burg	-11839
▁herzlich	-11840
▁soft	-11841
▁wohl	-11842
entions	-11843
▁reicht	-11844
▁freiwill	-11845
▁Indones	-11846
▁mur	-11847
▁1000	-11848
llers	-11849
▁Croatia	-11850
▁pattern	-11851
▁ursprünglich	-11852
▁Letz	-11853
▁2.0	-11854
▁hit	-11855
▁durchführen	-11856
▁Mitarbeitern	-11857
kter	-11858
▁awareness	-11859
▁faith	-11860
4)	-11861
bald	-11862
▁bon	-11863
▁2008,	-11864
politischen	-11865
▁debates	-11866
stellungs	-11867
rates	-11868
izz	-11869
▁Balkon	-11870
▁Box	-11871
▁protest	-11872
▁Spaziergang	-11873
▁bewer	-11874
▁erhol	-11875
▁Verbot	-11876
▁Trotzdem	-11877
scher	-11878
stood	-11879
▁Passag	-11880
▁Himm	-11881
▁Meiner	-11882
▁phen	-11883
▁herunterladen	-11884
▁Viet	-11885
Cl	-11886
▁Beiträge	-11887
pel	-11888
▁Bord	-11889
stände	-11890
▁prohib	-11891
▁schönsten	-11892
▁schwar	-11893
▁outdoor	-11894
▁universal	-11895
▁Geh	-11896
kurs	-11897
klärung	-11898
▁aufnehmen	-11899
▁geprüft	-11900
▁Leistungs	-11901
knü	-11902
▁Nun	-11903
▁Alles	-11904
▁Wesentlichen	-11905
▁Inner	-11906
▁beruhen	-11907
▁requirement	-11908
▁privat	-11909
▁conflicts	-11910
▁remote	-11911
▁residence	-11912
▁Ungar	-11913
▁Sobald	-11914
utern	-11915
▁veröffentlich	-11916
mehr	-11917
▁Nehmen	-11918
▁contrast	-11919
▁identify	-11920
▁pick	-11921
imedia	-11922
▁westlichen	-11923
izza	-11924
▁wann	-11925
▁creates	-11926
▁automatic	-11927
▁Drittens	-11928
ärten	-11929
▁Bör	-11930
▁Prop	-11931
▁Balkan	-11932
▁37	-11933
iring	-11934
technik	-11935
▁coher	-11936
inos	-11937
▁Freunden	-11938
▁ansprechen	-11939
äusern	-11940
▁Städten	-11941
▁impression	-11942
ployed	-11943
▁abol	-11944
▁doesn	-11945
▁Zielen	-11946
▁voranz	-11947
▁preparation	-11948
▁liberalisation	-11949
▁Eigentum	-11950
▁parallel	-11951
▁wiederholen	-11952
▁newly	-11953
▁handling	-11954
▁wiederholt	-11955
icans	-11956
astricht	-11957
demokraten	-11958
▁extraordin	-11959
abwe	-11960
öss	-11961
▁Luxembourg	-11962
▁sla	-11963
adurch	-11964
▁beenden	-11965
▁characteristics	-11966
rak	-11967
▁Bulgaria	-11968
GB	-11969
▁Gesam	-11970
▁Videos	-11971
▁emerging	-11972
▁verschw	-11973
▁Männern	-11974
▁erstklass	-11975
▁rapporteurs	-11976
▁charges	-11977
▁30%	-11978
▁kämpfen	-11979
▁opinions	-11980
▁Austausch	-11981
▁migration	-11982
▁terrorist	-11983
▁überprüft	-11984
▁Verbrechen	-11985
Form	-11986
▁Ladies	-11987
▁Rund	-11988
▁Kohäsions	-11989
▁resolutions	-11990
▁regulatory	-11991
▁youth	-11992
▁volume	-11993
stattung	-11994
▁inhabit	-11995
▁Export	-11996
▁konkrete	-11997
▁Beschluss	-11998
reffen	-11999
ältigen	-12000
▁supposed	-12001
▁Ath	-12002
▁Verlust	-12003
günst	-12004
▁investieren	-12005
tragung	-12006
▁returned	-12007
▁sexual	-12008
▁stil	-12009
▁dinner	-12010
▁hospit	-12011
▁Wild	-12012
▁accom	-12013
▁destru	-12014
▁iron	-12015
▁Gentoo	-12016
BC	-12017
eler	-12018
▁Vice	-12019
schätz	-12020
▁Gener	-12021
▁unzure	-12022
▁Jer	-12023
▁Absicht	-12024
▁license	-12025
▁schnelle	-12026
▁dele	-12027
▁continent	-12028
▁operational	-12029
oli	-12030
defin	-12031
▁NGO	-12032
▁gelungen	-12033
▁James	-12034
not	-12035
▁Word	-12036
▁Kroat	-12037
▁hundreds	-12038
▁ultimately	-12039
▁boat	-12040
▁Canada	-12041
▁facilitate	-12042
erma	-12043
▁Trump	-12044
▁kostenlosen	-12045
ibar	-12046
▁gender	-12047
▁Fernseh	-12048
▁Sund	-12049
▁Eindruck	-12050
atures	-12051
▁precise	-12052
Man	-12053
kohol	-12054
zellen	-12055
▁Straf	-12056
▁Maastricht	-12057
ML	-12058
Spe	-12059
▁cancel	-12060
▁reisen	-12061
▁involve	-12062
hme	-12063
oria	-12064
▁fertig	-12065
▁vorzulegen	-12066
niveau	-12067
▁Präsent	-12068
▁Gerichte	-12069
▁od	-12070
point	-12071
▁sleep	-12072
▁Camping	-12073
▁Fahrzeug	-12074
▁fantastic	-12075
▁hoher	-12076
▁Pia	-12077
▁couple	-12078
▁Fleisch	-12079
▁Willkommen	-12080
▁900	-12081
▁Pflicht	-12082
▁reveal	-12083
▁appoint	-12084
▁behandeln	-12085
▁palästinens	-12086
chron	-12087
▁Mikro	-12088
Projekt	-12089
▁Freiheiten	-12090
▁Kongress	-12091
▁höchsten	-12092
▁sozialer	-12093
▁maintained	-12094
▁disapp	-12095
▁Through	-12096
arische	-12097
▁Report	-12098
▁ersetzen	-12099
ati	-12100
probleme	-12101
▁stammen	-12102
▁Nahr	-12103
▁Verbindungen	-12104
ateful	-12105
regeln	-12106
▁Polish	-12107
▁Maßnahme	-12108
▁Behinder	-12109
▁Dollar	-12110
▁faster	-12111
iera	-12112
▁recommendation	-12113
▁Life	-12114
▁Congress	-12115
▁Sammlung	-12116
unger	-12117
▁Symbol	-12118
▁Thomas	-12119
▁sobald	-12120
▁genannt	-12121
andal	-12122
▁reported	-12123
care	-12124
▁gebaut	-12125
▁volunt	-12126
▁französische	-12127
▁Town	-12128
▁Il	-12129
▁beantworten	-12130
2010	-12131
äger	-12132
ksamkeit	-12133
▁witness	-12134
▁verwendeten	-12135
▁Rub	-12136
▁enfor	-12137
▁illustr	-12138
pap	-12139
▁gone	-12140
▁mini	-12141
uy	-12142
iny	-12143
▁holding	-12144
▁Gericht	-12145
ey	-12146
▁Schatten	-12147
▁conducted	-12148
chung	-12149
▁Stabilitäts	-12150
hängt	-12151
▁praktische	-12152
▁Speicher	-12153
▁Wohlstand	-12154
▁chinesischen	-12155
Des	-12156
▁zut	-12157
▁Agricult	-12158
▁phenomen	-12159
ziel	-12160
▁starten	-12161
ittees	-12162
üb	-12163
WF	-12164
▁cry	-12165
▁Wege	-12166
▁gets	-12167
▁Turn	-12168
▁Lounge	-12169
▁abandon	-12170
▁vollständigen	-12171
prüche	-12172
▁zugänglich	-12173
▁Ga	-12174
flug	-12175
▁messages	-12176
anen	-12177
rote	-12178
▁Erhöhung	-12179
▁bud	-12180
▁enh	-12181
▁korr	-12182
▁Sar	-12183
▁bedroom	-12184
▁Autobahn	-12185
iday	-12186
▁Automobil	-12187
immers	-12188
▁engag	-12189
▁gewährleistet	-12190
ktak	-12191
lared	-12192
Seiten	-12193
▁accompan	-12194
▁Eis	-12195
▁nachhaltigen	-12196
▁customs	-12197
▁Road	-12198
▁Dennoch	-12199
▁Ton	-12200
örd	-12201
▁Marina	-12202
▁drawing	-12203
▁geltenden	-12204
▁erörtern	-12205
schul	-12206
▁Procedure	-12207
mittelt	-12208
mäßigen	-12209
scheidet	-12210
▁Mut	-12211
▁schäd	-12212
▁entstehen	-12213
▁MEPs	-12214
▁Situationen	-12215
nitten	-12216
idem	-12217
▁vereinbart	-12218
▁expansion	-12219
cles	-12220
36	-12221
dh	-12222
looking	-12223
▁Sonne	-12224
▁catalog	-12225
▁lautet	-12226
▁erkunden	-12227
▁durchschnitt	-12228
29	-12229
▁Audio	-12230
▁regularly	-12231
üler	-12232
▁Kab	-12233
▁recip	-12234
▁Ankunft	-12235
▁kostet	-12236
▁meat	-12237
▁firms	-12238
▁Übern	-12239
osis	-12240
▁sah	-12241
▁Block	-12242
▁tö	-12243
▁geograf	-12244
▁behalten	-12245
▁minority	-12246
▁worry	-12247
▁Tschech	-12248
▁parents	-12249
▁electricity	-12250
▁smo	-12251
▁Vorschlags	-12252
▁una	-12253
teils	-12254
ypern	-12255
▁beschränkt	-12256
▁fee	-12257
▁Vater	-12258
nehmlichkeiten	-12259
uv	-12260
▁HD	-12261
ammelt	-12262
▁unfair	-12263
TC	-12264
bere	-12265
wahlen	-12266
▁Redner	-12267
▁parliaments	-12268
▁define	-12269
▁northern	-12270
▁verantwortungs	-12271
fangen	-12272
uminium	-12273
▁zuständigen	-12274
▁Meinungs	-12275
igsten	-12276
▁Tools	-12277
▁Year	-12278
▁Schlüsselwort	-12279
▁Ganz	-12280
cohol	-12281
▁career	-12282
▁Hostelsclub	-12283
▁langfristige	-12284
iox	-12285
bindung	-12286
water	-12287
ito	-12288
▁Äg	-12289
▁00:	-12290
light	-12291
▁Beihilfen	-12292
▁bilateral	-12293
▁subsidies	-12294
verständlich	-12295
▁Farb	-12296
▁consc	-12297
eding	-12298
▁Given	-12299
▁joined	-12300
▁Lieferung	-12301
▁widely	-12302
▁ausführ	-12303
▁Standort	-12304
▁Dienstleistungs	-12305
▁SO	-12306
▁hardware	-12307
aya	-12308
▁classic	-12309
grad	-12310
▁Menü	-12311
▁properties	-12312
▁münd	-12313
▁Luxus	-12314
▁deals	-12315
▁catch	-12316
▁noted	-12317
CHT	-12318
ugang	-12319
usstsein	-12320
igert	-12321
▁sinnvoll	-12322
▁verurteilt	-12323
▁angemessenen	-12324
▁Ret	-12325
usted	-12326
▁Dynam	-12327
pet	-12328
▁Cyprus	-12329
▁Preisen	-12330
▁vorstellen	-12331
▁Angaben	-12332
▁Brenn	-12333
▁Earth	-12334
▁ethnic	-12335
▁pollution	-12336
paket	-12337
▁Wei	-12338
▁follows	-12339
▁außerdem	-12340
▁surroundings	-12341
85	-12342
▁demanding	-12343
▁performed	-12344
▁daraus	-12345
100	-12346
table	-12347
▁somewhat	-12348
▁Asien	-12349
related	-12350
▁Europol	-12351
▁Partners	-12352
▁angepasst	-12353
▁Rumänien	-12354
licherweise	-12355
ätigung	-12356
▁Eur	-12357
▁machte	-12358
▁topic	-12359
▁quarter	-12360
▁auffordern	-12361
▁welfare	-12362
wart	-12363
1-	-12364
▁coal	-12365
ädchen	-12366
▁frequently	-12367
enter	-12368
▁emergency	-12369
lieb	-12370
▁album	-12371
▁bemerkens	-12372
orca	-12373
systeme	-12374
▁divided	-12375
▁Unterkünfte	-12376
orien	-12377
▁zeich	-12378
▁Parkplatz	-12379
▁util	-12380
▁Budapest	-12381
ografie	-12382
ideos	-12383
▁father	-12384
seite	-12385
▁2007.	-12386
▁walls	-12387
ulf	-12388
iforn	-12389
ativer	-12390
petenz	-12391
▁optimal	-12392
ifest	-12393
▁dark	-12394
!!	-12395
ließt	-12396
▁Überzeugung	-12397
ef	-12398
▁assets	-12399
▁transportation	-12400
▁east	-12401
▁Anton	-12402
Star	-12403
▁drug	-12404
▁ought	-12405
▁Geträn	-12406
gesellschaften	-12407
▁Late	-12408
▁Festlegung	-12409
uppen	-12410
▁collect	-12411
räften	-12412
institution	-12413
sa	-12414
▁Rou	-12415
ifies	-12416
ommerce	-12417
▁Werbung	-12418
▁sor	-12419
▁Vorbereitung	-12420
Mitgliedstaaten	-12421
ahrt	-12422
▁architect	-12423
folgung	-12424
▁Gepäck	-12425
▁cer	-12426
▁acquis	-12427
▁aktivieren	-12428
▁wesentlichen	-12429
▁Bett	-12430
▁lauf	-12431
zahlung	-12432
▁commun	-12433
▁displayed	-12434
zugehen	-12435
▁aftern	-12436
▁wünsch	-12437
]].	-12438
▁trop	-12439
sprache	-12440
material	-12441
▁Sony	-12442
▁Strukturen	-12443
▁übernommen	-12444
▁komfortabel	-12445
aue	-12446
▁visa	-12447
hnte	-12448
▁nob	-12449
▁focused	-12450
▁weitgehend	-12451
vol	-12452
▁cab	-12453
▁Grad	-12454
▁installieren	-12455
▁Keyword	-12456
▁dining	-12457
▁Zahlung	-12458
▁carbon	-12459
demokrat	-12460
▁Ernähr	-12461
ae	-12462
▁planet	-12463
▁Verring	-12464
entwick	-12465
▁vacation	-12466
▁Subsid	-12467
▁zentralen	-12468
▁interessant	-12469
▁vorüber	-12470
▁react	-12471
acher	-12472
▁Mold	-12473
▁islands	-12474
▁Tagung	-12475
programms	-12476
rechend	-12477
▁bilater	-12478
ungsantrag	-12479
AF	-12480
▁trib	-12481
▁lobby	-12482
▁Protection	-12483
mens	-12484
▁Struct	-12485
▁Problems	-12486
▁erinnert	-12487
▁Übersetzung	-12488
messen	-12489
▁answers	-12490
▁Leistungen	-12491
▁PRO	-12492
▁connections	-12493
ror	-12494
schritt	-12495
▁intensive	-12496
geräte	-12497
▁ticket	-12498
▁Beschwer	-12499
aching	-12500
▁Verzöger	-12501
▁direkten	-12502
▁verbinden	-12503
gestellten	-12504
ürze	-12505
bahnhof	-12506
▁Krisen	-12507
▁producing	-12508
▁load	-12509
▁Brand	-12510
viertel	-12511
▁grand	-12512
▁kleines	-12513
▁BSE	-12514
▁organized	-12515
▁Anschließend	-12516
asions	-12517
▁cable	-12518
▁mother	-12519
▁Framework	-12520
▁stren	-12521
▁towns	-12522
▁gebilligt	-12523
cean	-12524
uese	-12525
▁Food	-12526
▁metal	-12527
▁Wirkung	-12528
ties	-12529
▁Niger	-12530
▁Versand	-12531
▁courage	-12532
▁MB	-12533
▁sauna	-12534
▁emotion	-12535
▁maintaining	-12536
▁Lobby	-12537
▁Gerechtigkeit	-12538
krit	-12539
▁Budgets	-12540
▁ball	-12541
▁Tochter	-12542
▁restruct	-12543
national	-12544
auso	-12545
sieht	-12546
dire	-12547
▁gold	-12548
▁Taiwan	-12549
▁jemals	-12550
▁Erinner	-12551
▁niederländ	-12552
▁settings	-12553
vant	-12554
▁Funds	-12555
▁boost	-12556
▁fällt	-12557
essions	-12558
▁Charta	-12559
▁statistics	-12560
▁Haftung	-12561
▁Vietnam	-12562
▁Training	-12563
▁Einkommen	-12564
▁visual	-12565
DER	-12566
▁seeing	-12567
▁abhängig	-12568
▁cash	-12569
▁unfor	-12570
erten	-12571
▁Konto	-12572
95	-12573
TR	-12574
endung	-12575
▁Gedanken	-12576
▁renovated	-12577
▁kombiniert	-12578
▁erweitern	-12579
▁techniques	-12580
▁Stück	-12581
wechsel	-12582
▁grateful	-12583
▁berechtigt	-12584
ups	-12585
stät	-12586
▁verschär	-12587
33	-12588
▁Argument	-12589
▁balcony	-12590
▁Konsequenzen	-12591
schule	-12592
▁Ram	-12593
%,	-12594
▁Sn	-12595
freie	-12596
▁Works	-12597
▁enthaltenen	-12598
▁interessante	-12599
▁bewerten	-12600
▁ausgeschlossen	-12601
igend	-12602
Wir	-12603
▁para	-12604
▁Ware	-12605
▁kreat	-12606
beziehungen	-12607
opolit	-12608
▁prest	-12609
▁Whether	-12610
▁involves	-12611
▁Praktiken	-12612
onien	-12613
▁label	-12614
▁Gebrauch	-12615
roht	-12616
▁artist	-12617
▁behavi	-12618
gor	-12619
▁GU	-12620
urlaub	-12621
▁Ersatz	-12622
▁Komponenten	-12623
▁Gründung	-12624
▁unverzüglich	-12625
Par	-12626
▁proved	-12627
▁Gerichtshof	-12628
▁Pen	-12629
▁seat	-12630
mitten	-12631
▁heat	-12632
▁owner	-12633
▁demonstrate	-12634
▁demonstrated	-12635
mes	-12636
▁declaration	-12637
▁Wirksamkeit	-12638
▁grunds	-12639
▁Network	-12640
▁bekannten	-12641
▁updated	-12642
▁uncertain	-12643
▁fortgesetzt	-12644
▁WC	-12645
▁Erzeug	-12646
▁driver	-12647
▁höhere	-12648
▁israel	-12649
▁delighted	-12650
▁kurzfrist	-12651
▁Gesicht	-12652
deb	-12653
▁Betrag	-12654
▁stellte	-12655
▁verleihen	-12656
▁Wäl	-12657
▁rapidly	-12658
▁visible	-12659
▁offiziellen	-12660
uite	-12661
ifall	-12662
▁heritage	-12663
▁unzureich	-12664
▁corruption	-12665
hrte	-12666
▁mangeln	-12667
▁öffentlich	-12668
▁sehe	-12669
ti	-12670
▁Pin	-12671
rown	-12672
while	-12673
▁nine	-12674
▁signs	-12675
▁gewonnen	-12676
▁verbesser	-12677
▁gearbeitet	-12678
▁ongoing	-12679
▁Komplex	-12680
▁understood	-12681
stes	-12682
▁gestär	-12683
▁showing	-12684
9)	-12685
▁AV	-12686
▁tail	-12687
▁cutting	-12688
▁geschätz	-12689
iftung	-12690
▁collaboration	-12691
▁anwes	-12692
diction	-12693
▁Wetter	-12694
▁bottom	-12695
▁gespielt	-12696
▁Verringerung	-12697
▁App	-12698
▁Quark	-12699
▁careful	-12700
▁russischen	-12701
izer	-12702
▁Zul	-12703
▁Andere	-12704
▁Mängel	-12705
▁resistance	-12706
▁Är	-12707
▁Bang	-12708
▁Luf	-12709
▁wines	-12710
stark	-12711
▁mostly	-12712
▁Krankheit	-12713
▁bestimmen	-12714
▁Milch	-12715
▁solches	-12716
▁Nachbarn	-12717
▁wiederher	-12718
▁bestimmter	-12719
icer	-12720
agers	-12721
▁Leon	-12722
▁Mittag	-12723
▁überzeugen	-12724
rett	-12725
▁interv	-12726
▁autonom	-12727
würdigkeit	-12728
▁AP	-12729
▁inhabitants	-12730
▁Bewerber	-12731
▁Reis	-12732
▁Ext	-12733
▁Deutschen	-12734
▁1992	-12735
▁disappe	-12736
OW	-12737
Grup	-12738
ziele	-12739
▁invite	-12740
▁gepr	-12741
▁Persön	-12742
▁protocol	-12743
▁Küsten	-12744
▁Vict	-12745
▁diagn	-12746
▁Mitteln	-12747
ianischen	-12748
▁starts	-12749
▁unge	-12750
▁Denken	-12751
ucher	-12752
▁Pact	-12753
▁38	-12754
▁Wirk	-12755
▁fortz	-12756
▁Subsidiar	-12757
NS	-12758
athol	-12759
▁internen	-12760
▁accompanied	-12761
▁unglaub	-12762
▁contacts	-12763
▁==	-12764
▁concluded	-12765
ieht	-12766
▁Alp	-12767
▁Provinz	-12768
ökonom	-12769
▁Holid	-12770
▁bereitzustellen	-12771
▁etabl	-12772
▁Ungarn	-12773
▁bestand	-12774
▁newsp	-12775
▁Quelle	-12776
▁Copenhagen	-12777
▁interior	-12778
▁Philosoph	-12779
▁äuß	-12780
▁Soviet	-12781
▁Israeli	-12782
▁2010,	-12783
lastung	-12784
▁6,	-12785
▁Hindernisse	-12786
▁Prague	-12787
▁Umfeld	-12788
▁valley	-12789
▁Anbieter	-12790
▁indicated	-12791
hips	-12792
schön	-12793
sbuffet	-12794
▁Author	-12795
▁Max	-12796
▁Adobe	-12797
▁Bö	-12798
level	-12799
▁Tickets	-12800
acks	-12801
zugreifen	-12802
▁erklärte	-12803
ér	-12804
istent	-12805
▁Image	-12806
▁dates	-12807
▁string	-12808
NA	-12809
▁afr	-12810
▁ang	-12811
▁Polit	-12812
▁Slovak	-12813
▁channels	-12814
▁presents	-12815
▁Mem	-12816
▁popul	-12817
▁tourists	-12818
▁relaxation	-12819
▁Canon	-12820
▁sichern	-12821
▁explicit	-12822
▁einhalten	-12823
▁Aufenthalts	-12824
▁input	-12825
▁arrive	-12826
▁wesentliche	-12827
col	-12828
▁UR	-12829
▁sac	-12830
▁Alpen	-12831
▁minister	-12832
▁overcome	-12833
▁immigrants	-12834
▁effectiveness	-12835
▁castle	-12836
▁Moz	-12837
▁2007,	-12838
▁Mitgliedschaft	-12839
▁ER	-12840
▁koh	-12841
▁Portuguese	-12842
kehrt	-12843
▁Perhaps	-12844
▁unterscheiden	-12845
itete	-12846
▁Baltic	-12847
▁Rechtsgrundlage	-12848
betten	-12849
grenzen	-12850
▁Zypern	-12851
▁Konfigur	-12852
▁corresponding	-12853
ZB	-12854
▁Laden	-12855
▁stronger	-12856
▁Energien	-12857
▁abstimmen	-12858
Sta	-12859
lösungen	-12860
▁supplement	-12861
▁Liter	-12862
▁dankbar	-12863
▁Luc	-12864
▁Feuer	-12865
gesundheit	-12866
▁decorated	-12867
nd	-12868
▁34	-12869
▁japan	-12870
rd	-12871
▁IV	-12872
▁großem	-12873
▁ansehen	-12874
▁drivers	-12875
▁Investment	-12876
ci	-12877
▁depending	-12878
▁untersucht	-12879
ulich	-12880
▁Laut	-12881
▁theoret	-12882
apy	-12883
▁visited	-12884
mung	-12885
▁Apple	-12886
usse	-12887
▁accident	-12888
▁locations	-12889
▁umfangreichen	-12890
ktakul	-12891
▁Water	-12892
▁Verwir	-12893
▁Ferr	-12894
▁library	-12895
▁amerikanische	-12896
▁stored	-12897
▁Partnern	-12898
▁arab	-12899
technolog	-12900
▁Betracht	-12901
▁horizont	-12902
▁commission	-12903
▁settlement	-12904
▁imposed	-12905
▁Blut	-12906
▁Mexico	-12907
izieren	-12908
▁Edition	-12909
▁traditions	-12910
▁erfolgreiche	-12911
ée	-12912
▁Legal	-12913
▁fördert	-12914
▁constitution	-12915
unning	-12916
▁flights	-12917
power	-12918
▁exciting	-12919
▁verstehe	-12920
▁awa	-12921
▁Orten	-12922
herstellung	-12923
▁Freit	-12924
▁Schulen	-12925
▁Armee	-12926
ivalent	-12927
▁höheren	-12928
cor	-12929
ipher	-12930
▁Erstellung	-12931
▁minorities	-12932
estr	-12933
▁Mas	-12934
wäl	-12935
▁Fa	-12936
▁Nob	-12937
▁distingu	-12938
▁aussprechen	-12939
ardo	-12940
oe	-12941
▁cycle	-12942
▁Gewährleistung	-12943
▁vorgeschlagene	-12944
komp	-12945
▁McC	-12946
▁partly	-12947
▁Katastrophe	-12948
▁Trag	-12949
▁Gleichstellung	-12950
▁Tarif	-12951
▁magnific	-12952
▁Kriminalität	-12953
orie	-12954
▁Funktions	-12955
▁afternoon	-12956
▁schritt	-12957
▁educational	-12958
▁Geheim	-12959
teilungen	-12960
▁assume	-12961
▁refr	-12962
▁citizen	-12963
uous	-12964
▁Strategien	-12965
▁Quellen	-12966
waffen	-12967
weitung	-12968
▁bewähr	-12969
▁Nos	-12970
▁fein	-12971
▁Safe	-12972
fallen	-12973
▁entrance	-12974
▁intelligent	-12975
▁SMEs	-12976
▁crimes	-12977
▁Außenpolitik	-12978
▁tackle	-12979
▁categories	-12980
▁credibility	-12981
▁Az	-12982
▁rising	-12983
▁explore	-12984
▁Beratung	-12985
▁controlled	-12986
▁definieren	-12987
hone	-12988
▁Tel	-12989
▁Vom	-12990
▁sad	-12991
▁Eigentü	-12992
▁endgültige	-12993
▁foundation	-12994
rical	-12995
▁Allian	-12996
▁department	-12997
aine	-12998
life	-12999
▁ine	-13000
▁raw	-13001
iones	-13002
arters	-13003
ulpt	-13004
ziplin	-13005
▁Child	-13006
▁integriert	-13007
▁Sche	-13008
▁replaced	-13009
3-	-13010
▁thr	-13011
pieler	-13012
32	-13013
▁era	-13014
▁spoken	-13015
App	-13016
▁gestärkt	-13017
▁usual	-13018
setzungen	-13019
▁Mobilität	-13020
▁finanziert	-13021
spruchs	-13022
▁committees	-13023
▁stammt	-13024
etheless	-13025
▁Eisenbahn	-13026
It	-13027
▁aktualisiert	-13028
▁oral	-13029
häuser	-13030
▁Ebenen	-13031
▁22.	-13032
▁Hungary	-13033
▁Quad	-13034
▁stylish	-13035
▁vielfält	-13036
▁worksh	-13037
▁finished	-13038
artner	-13039
▁dream	-13040
▁deficit	-13041
otive	-13042
▁theme	-13043
▁beobachten	-13044
▁Ib	-13045
prof	-13046
▁ähnliche	-13047
▁USS	-13048
▁Angriff	-13049
▁Stockhol	-13050
▁Tausende	-13051
▁trafficking	-13052
▁Weltkrieg	-13053
▁Verbreitung	-13054
abet	-13055
▁Blue	-13056
systems	-13057
▁Kamera	-13058
▁smooth	-13059
maschine	-13060
▁bisschen	-13061
▁festlegen	-13062
▁Einstellungen	-13063
▁tatsächlichen	-13064
▁Ill	-13065
▁finde	-13066
problem	-13067
▁Übergangs	-13068
▁rul	-13069
▁frame	-13070
ameters	-13071
▁begrenzt	-13072
▁printing	-13073
änen	-13074
ji	-13075
▁menschliche	-13076
▁Hen	-13077
▁warn	-13078
▁Michel	-13079
▁pieces	-13080
▁declared	-13081
▁adopting	-13082
▁Ther	-13083
lässlich	-13084
▁elsewhere	-13085
▁proof	-13086
▁Amendments	-13087
projekte	-13088
▁Marktes	-13089
▁amaz	-13090
wald	-13091
▁deleg	-13092
▁Punkten	-13093
schriften	-13094
▁qualifiz	-13095
▁visiting	-13096
ounter	-13097
▁copyright	-13098
▁transatlant	-13099
ernel	-13100
▁gefördert	-13101
▁verstanden	-13102
3)	-13103
gänge	-13104
▁facts	-13105
▁Projekten	-13106
▁Aben	-13107
▁mitge	-13108
▁Anliegen	-13109
▁Kilometer	-13110
▁verbindet	-13111
bek	-13112
▁30.	-13113
▁Dal	-13114
▁maritime	-13115
▁Question	-13116
änderung	-13117
▁gewährt	-13118
cepts	-13119
▁recorded	-13120
▁destruction	-13121
▁Marke	-13122
▁Access	-13123
▁battle	-13124
▁replace	-13125
▁king	-13126
▁Francis	-13127
64	-13128
▁Kandidaten	-13129
▁Ten	-13130
▁Besitz	-13131
oden	-13132
minute	-13133
ography	-13134
▁transactions	-13135
▁stars	-13136
▁centuries	-13137
CP	-13138
chem	-13139
▁Able	-13140
▁spektakul	-13141
▁ausgewogen	-13142
utage	-13143
ughter	-13144
▁Puerto	-13145
▁occasions	-13146
▁documentation	-13147
▁unterzeichnet	-13148
▁faszin	-13149
▁possibly	-13150
▁75	-13151
▁Var	-13152
utzutage	-13153
▁Vize	-13154
design	-13155
▁Mittelpunkt	-13156
oub	-13157
▁Franz	-13158
▁Fußball	-13159
haltet	-13160
▁Zusätz	-13161
useum	-13162
▁Boot	-13163
▁scheme	-13164
▁spectacular	-13165
▁fitness	-13166
jan	-13167
▁Ticket	-13168
▁lovely	-13169
macht	-13170
aktivitäten	-13171
1:	-13172
▁Tests	-13173
▁Ausweitung	-13174
▁bemühen	-13175
iki	-13176
gebä	-13177
▁suite	-13178
▁passenger	-13179
▁respected	-13180
idet	-13181
▁Clear	-13182
▁Suiten	-13183
▁oblige	-13184
▁Northern	-13185
aga	-13186
reu	-13187
dauer	-13188
▁awarded	-13189
iences	-13190
▁Space	-13191
▁AM	-13192
BM	-13193
▁repair	-13194
projekt	-13195
▁behaviour	-13196
▁constitutional	-13197
▁Valley	-13198
▁Verpack	-13199
].	-13200
▁maler	-13201
▁vulnerable	-13202
▁Arbeitsplatz	-13203
▁Zert	-13204
▁flag	-13205
istern	-13206
▁Urheber	-13207
freundliche	-13208
weite	-13209
▁woman	-13210
▁Friday	-13211
▁erheblichen	-13212
nex	-13213
▁einzuführen	-13214
▁spezialisiert	-13215
▁facility	-13216
▁speaker	-13217
▁Jahrzehnten	-13218
▁OR	-13219
▁gardens	-13220
▁Kopenhagen	-13221
▁functioning	-13222
▁Voraussetzung	-13223
▁exports	-13224
Art	-13225
kur	-13226
▁Genau	-13227
▁encouraging	-13228
apie	-13229
UL	-13230
▁confer	-13231
▁einzur	-13232
edy	-13233
▁!!	-13234
achts	-13235
▁schlägt	-13236
▁1960	-13237
▁weitaus	-13238
▁2006,	-13239
▁judicial	-13240
lück	-13241
▁Naz	-13242
ancing	-13243
▁desired	-13244
▁irgende	-13245
▁heating	-13246
▁umge	-13247
▁verbind	-13248
handelt	-13249
▁Planeten	-13250
▁inf	-13251
▁forg	-13252
▁dient	-13253
▁linken	-13254
▁wahren	-13255
▁genauso	-13256
▁31.	-13257
▁Regen	-13258
phase	-13259
▁plen	-13260
▁shares	-13261
▁Ker	-13262
▁Sohn	-13263
▁lebens	-13264
▁plenty	-13265
▁windows	-13266
wahr	-13267
▁Texte	-13268
▁thumb	-13269
▁übernimmt	-13270
▁andererseits	-13271
ographic	-13272
▁taxation	-13273
▁amtierender	-13274
▁fem	-13275
▁eventually	-13276
▁genü	-13277
neter	-13278
▁suites	-13279
▁competent	-13280
▁configuration	-13281
▁Nein	-13282
▁Palästinens	-13283
▁compatible	-13284
pra	-13285
▁films	-13286
▁sud	-13287
▁brut	-13288
▁gründ	-13289
▁renoviert	-13290
kons	-13291
othe	-13292
▁Hamas	-13293
▁flood	-13294
▁Project	-13295
▁Vermögens	-13296
uster	-13297
▁Educ	-13298
▁exit	-13299
effizienz	-13300
▁Alexander	-13301
▁Phän	-13302
▁sugar	-13303
▁sending	-13304
technologie	-13305
▁hervorragend	-13306
▁Frist	-13307
▁Volkes	-13308
reb	-13309
stoß	-13310
▁Belgium	-13311
▁subsidiarity	-13312
well	-13313
▁manufacturer	-13314
▁angekünd	-13315
▁mac	-13316
▁courts	-13317
▁toward	-13318
ockt	-13319
▁died	-13320
▁eastern	-13321
▁tickets	-13322
▁inj	-13323
ademy	-13324
reprene	-13325
▁cosy	-13326
▁routes	-13327
▁bedauer	-13328
▁professionals	-13329
▁180	-13330
iva	-13331
elling	-13332
▁Demokraten	-13333
▁containing	-13334
ju	-13335
▁dign	-13336
▁nahm	-13337
▁Optim	-13338
▁Gesetzes	-13339
▁inakzeptabel	-13340
28	-13341
icing	-13342
formance	-13343
▁Following	-13344
cons	-13345
▁correctly	-13346
itim	-13347
▁auswirken	-13348
Stunden	-13349
füllung	-13350
ichteten	-13351
Stand	-13352
▁Kirk	-13353
▁Pläne	-13354
▁nomin	-13355
economic	-13356
For	-13357
iese	-13358
▁flu	-13359
▁Curr	-13360
▁Klar	-13361
▁laden	-13362
athemat	-13363
▁tar	-13364
▁stehende	-13365
▁Dev	-13366
▁Who	-13367
▁forts	-13368
▁entsprechend	-13369
▁identified	-13370
▁Charles	-13371
äle	-13372
▁HTML	-13373
gested	-13374
ulin	-13375
▁Fahrer	-13376
▁profile	-13377
Me	-13378
lings	-13379
▁Planung	-13380
irs	-13381
OC	-13382
wegs	-13383
▁Exchange	-13384
▁veröffentlichen	-13385
▁BMW	-13386
▁Zür	-13387
plications	-13388
▁seas	-13389
▁Ägyp	-13390
▁außen	-13391
lic	-13392
▁ice	-13393
▁Freude	-13394
▁Within	-13395
kontroll	-13396
▁rub	-13397
▁channel	-13398
▁700	-13399
▁AKP	-13400
emit	-13401
▁Aktual	-13402
legungen	-13403
▁inclusion	-13404
kö	-13405
chst	-13406
▁Verd	-13407
▁banking	-13408
▁Entscheidungs	-13409
Em	-13410
▁Kein	-13411
afrika	-13412
▁Staates	-13413
▁alcohol	-13414
grenzung	-13415
▁Aufsichts	-13416
▁shock	-13417
▁Structural	-13418
▁Description	-13419
aling	-13420
▁Yes	-13421
▁Palette	-13422
▁Mur	-13423
▁virtual	-13424
▁unterliegen	-13425
ville	-13426
▁Meister	-13427
▁Therm	-13428
▁Professor	-13429
▁fix	-13430
▁Without	-13431
▁individuellen	-13432
▁army	-13433
orb	-13434
▁milk	-13435
▁Rena	-13436
▁Umgang	-13437
▁preparing	-13438
ained	-13439
▁Registrierung	-13440
▁Equ	-13441
werken	-13442
entwurf	-13443
▁geplant	-13444
▁Wolf	-13445
▁entfernen	-13446
▁zusammenzu	-13447
pfl	-13448
▁Malta	-13449
▁satisfied	-13450
▁Page	-13451
▁sen	-13452
▁verbreitet	-13453
eitigung	-13454
▁Flugzeug	-13455
▁Abkommens	-13456
▁addresses	-13457
▁personnel	-13458
har	-13459
▁Automat	-13460
▁Mehrwerts	-13461
▁genie	-13462
▁anwenden	-13463
etzugang	-13464
▁Glaubwürdigkeit	-13465
oot	-13466
ped	-13467
▁consent	-13468
ermaßen	-13469
▁absence	-13470
▁division	-13471
llo	-13472
▁fab	-13473
▁suspend	-13474
▁extraordinary	-13475
uverän	-13476
▁Register	-13477
▁Spielen	-13478
▁Festpl	-13479
▁lounge	-13480
▁unabhängige	-13481
▁respektieren	-13482
▁suppliers	-13483
achsene	-13484
marquis	-13485
Über	-13486
emble	-13487
pläne	-13488
▁2000,	-13489
▁appointed	-13490
▁einheitlichen	-13491
▁toba	-13492
mittag	-13493
▁nörd	-13494
▁proposes	-13495
▁Vene	-13496
langen	-13497
▁Domin	-13498
▁providers	-13499
▁Wohnzimmer	-13500
▁vorbereitet	-13501
▁hundred	-13502
▁Women	-13503
▁Castle	-13504
gä	-13505
▁Tip	-13506
▁untergraben	-13507
Ad	-13508
▁spät	-13509
▁Auffassung	-13510
▁Mode	-13511
▁slightly	-13512
▁excessive	-13513
▁considering	-13514
▁1993	-13515
▁diverse	-13516
▁resolved	-13517
▁ernsthaft	-13518
Br	-13519
▁Entfern	-13520
▁certific	-13521
▁militärische	-13522
▁Na	-13523
▁plays	-13524
▁pursue	-13525
erts	-13526
▁Donner	-13527
▁erscheinen	-13528
▁relative	-13529
▁Sudan	-13530
▁Desk	-13531
▁Schuld	-13532
▁theory	-13533
▁strategischen	-13534
▁erreichbar	-13535
uliert	-13536
▁proven	-13537
▁termin	-13538
zip	-13539
▁formed	-13540
▁Millenn	-13541
▁Mädchen	-13542
▁Angebote	-13543
▁productivity	-13544
▁Zusammenhalt	-13545
▁Ziffer	-13546
▁Anlagen	-13547
vereinbar	-13548
unications	-13549
én	-13550
▁Ku	-13551
▁Gewicht	-13552
▁Assembly	-13553
▁actively	-13554
▁führende	-13555
▁Werke	-13556
poration	-13557
▁globalisation	-13558
pot	-13559
▁Rückkehr	-13560
▁Parkplätze	-13561
comp	-13562
▁steigern	-13563
▁jeweils	-13564
▁decisive	-13565
mir	-13566
▁Kürz	-13567
▁enhance	-13568
▁zerstört	-13569
insel	-13570
▁Balkans	-13571
▁aggress	-13572
▁plenary	-13573
▁Regulierung	-13574
ixt	-13575
chern	-13576
▁klaren	-13577
dict	-13578
zenten	-13579
▁Kürze	-13580
▁Opposition	-13581
▁Kolleginnen	-13582
▁Nic	-13583
▁impose	-13584
▁ven	-13585
methoden	-13586
▁Host	-13587
▁bedanken	-13588
▁ensures	-13589
▁distributed	-13590
outs	-13591
▁Nachhalt	-13592
▁künstler	-13593
▁behaupten	-13594
34	-13595
yside	-13596
▁legitimate	-13597
▁7,	-13598
ueller	-13599
▁component	-13600
▁Verarbeitung	-13601
▁referendum	-13602
▁Among	-13603
veranst	-13604
▁Korruption	-13605
▁Fundamental	-13606
▁adults	-13607
partment	-13608
▁Mobile	-13609
▁ernsthafte	-13610
vertrag	-13611
▁Thail	-13612
▁definitely	-13613
demark	-13614
▁Termin	-13615
▁Prozesse	-13616
▁produzieren	-13617
gänger	-13618
strafe	-13619
▁Hauptz	-13620
▁beinhaltet	-13621
bergen	-13622
▁Ebenso	-13623
▁Lehr	-13624
▁Verg	-13625
führungen	-13626
▁roads	-13627
▁Attra	-13628
räumen	-13629
klichen	-13630
▁tobacco	-13631
▁appeared	-13632
▁prosperity	-13633
geschichte	-13634
▁duties	-13635
▁NGOs	-13636
▁Oder	-13637
zeichnis	-13638
▁thousand	-13639
▁hyp	-13640
▁Hardware	-13641
▁Benutzern	-13642
▁magnificent	-13643
ögern	-13644
▁Sorge	-13645
▁substance	-13646
phäre	-13647
▁Urlaubs	-13648
▁beschäftigt	-13649
ni	-13650
rating	-13651
▁Still	-13652
Website	-13653
▁Indian	-13654
▁preced	-13655
▁Chair	-13656
▁Browser	-13657
▁schätzen	-13658
▁80%	-13659
▁Salzburg	-13660
▁Thurs	-13661
▁fourth	-13662
▁Thirdly	-13663
▁ped	-13664
▁honest	-13665
▁Brasilien	-13666
▁erlä	-13667
▁miles	-13668
hüt	-13669
▁savings	-13670
riedenheit	-13671
IX	-13672
▁forum	-13673
▁supplies	-13674
▁rechtliche	-13675
▁AIDS	-13676
▁Ausflüge	-13677
dat	-13678
ausend	-13679
li	-13680
onie	-13681
▁namens	-13682
▁rental	-13683
▁aufzubauen	-13684
▁entwickelten	-13685
▁solely	-13686
▁Kriegs	-13687
▁housing	-13688
▁Clin	-13689
▁proposing	-13690
ergeb	-13691
▁incom	-13692
▁Beseitigung	-13693
▁subjects	-13694
▁anspruchs	-13695
▁Games	-13696
▁semin	-13697
▁Freitag	-13698
raf	-13699
▁Plug	-13700
▁Semin	-13701
▁Statt	-13702
▁Dazu	-13703
▁2006.	-13704
▁é	-13705
cession	-13706
▁dasselbe	-13707
km	-13708
▁vary	-13709
▁gained	-13710
angehör	-13711
▁lessons	-13712
▁geliefert	-13713
▁Islamic	-13714
▁Made	-13715
▁manip	-13716
▁Finanzkrise	-13717
▁verble	-13718
▁concepts	-13719
▁Zahlungen	-13720
▁beeinträchtigen	-13721
gelöst	-13722
ila	-13723
▁federal	-13724
sse	-13725
▁suit	-13726
▁Umsatz	-13727
▁Projekts	-13728
39	-13729
▁sit	-13730
reche	-13731
chester	-13732
▁Mountain	-13733
▁PS	-13734
▁illegalen	-13735
ötz	-13736
▁25.	-13737
▁Wicht	-13738
▁Client	-13739
orama	-13740
▁recy	-13741
▁verk	-13742
▁Betten	-13743
▁applying	-13744
enia	-13745
ultural	-13746
▁Pfer	-13747
▁Chancen	-13748
▁carrying	-13749
▁diskutiert	-13750
▁Next	-13751
▁enttäus	-13752
▁rechtzeit	-13753
▁Common	-13754
▁partial	-13755
▁Newsletter	-13756
▁SAP	-13757
Version	-13758
▁festzulegen	-13759
▁Distr	-13760
▁decre	-13761
▁societies	-13762
bach	-13763
▁VAT	-13764
▁Kabel	-13765
▁Zerst	-13766
▁Positionen	-13767
▁interpretation	-13768
▁abuse	-13769
▁reinfor	-13770
▁Treat	-13771
On	-13772
▁Residen	-13773
▁Flüchtlinge	-13774
▁weekend	-13775
greg	-13776
▁Wal	-13777
▁herrlichen	-13778
beweg	-13779
▁university	-13780
▁individuell	-13781
grenze	-13782
▁Fahrrad	-13783
▁gelesen	-13784
▁Schüler	-13785
▁sammeln	-13786
▁FA	-13787
▁stru	-13788
▁entscheidende	-13789
estra	-13790
scale	-13791
liefer	-13792
▁assure	-13793
▁Buchung	-13794
▁Branchen	-13795
▁everyday	-13796
▁geeignete	-13797
▁speichern	-13798
▁praktischen	-13799
▁erfolgreichen	-13800
▁EZB	-13801
▁nevertheless	-13802
▁wrote	-13803
▁**	-13804
zust	-13805
▁langsam	-13806
▁Erholung	-13807
instrument	-13808
▁DE	-13809
▁western	-13810
▁Dipl	-13811
▁ships	-13812
▁artistic	-13813
agg	-13814
▁Kais	-13815
▁Implement	-13816
▁acknowledge	-13817
kture	-13818
▁voluntary	-13819
▁gekauf	-13820
▁murder	-13821
▁regarded	-13822
▁Shop	-13823
▁deposit	-13824
▁Überarbeitung	-13825
68	-13826
dorf	-13827
▁surf	-13828
ultane	-13829
arbeitungs	-13830
▁Befür	-13831
▁connect	-13832
▁eingeschrän	-13833
▁23.	-13834
▁Rule	-13835
▁Tourism	-13836
▁kompliz	-13837
▁politically	-13838
ICH	-13839
lers	-13840
▁Fert	-13841
▁greatly	-13842
▁angenehm	-13843
ozi	-13844
▁radical	-13845
▁Americans	-13846
▁susp	-13847
▁Grünen	-13848
▁benutzer	-13849
▁qualitativ	-13850
▁ordnungsgemä	-13851
▁bla	-13852
otic	-13853
nimmt	-13854
Con	-13855
astung	-13856
▁relie	-13857
stil	-13858
▁generated	-13859
rog	-13860
▁aufer	-13861
▁hohem	-13862
▁Klasse	-13863
▁40%	-13864
▁Cho	-13865
▁bez	-13866
branche	-13867
▁einstimm	-13868
▁suggested	-13869
▁präsentiert	-13870
gehör	-13871
▁Poly	-13872
▁wechs	-13873
▁verboten	-13874
▁Gaza	-13875
▁Straft	-13876
wesenheit	-13877
▁wes	-13878
▁bright	-13879
▁narrow	-13880
▁sensible	-13881
▁manager	-13882
▁updates	-13883
ipfel	-13884
▁Erwä	-13885
oration	-13886
emen	-13887
fuhr	-13888
▁Hof	-13889
▁ersta	-13890
▁Aufzug	-13891
▁uniform	-13892
bul	-13893
Gruppe	-13894
▁schwe	-13895
▁Textil	-13896
▁EM	-13897
▁tend	-13898
▁domain	-13899
▁Kontrollen	-13900
▁Amt	-13901
invest	-13902
▁arrived	-13903
▁elektronischen	-13904
▁elector	-13905
▁Steuerung	-13906
▁lots	-13907
▁strategische	-13908
Pal	-13909
stream	-13910
▁fu	-13911
iode	-13912
rechten	-13913
▁portug	-13914
oom	-13915
oul	-13916
▁Datum	-13917
▁Lernen	-13918
▁defect	-13919
▁nights	-13920
▁musical	-13921
▁conditioning	-13922
▁AB	-13923
▁College	-13924
▁externen	-13925
▁packaging	-13926
illed	-13927
▁erlassen	-13928
▁authentic	-13929
▁Vel	-13930
▁ört	-13931
▁Legisl	-13932
▁Single	-13933
▁Sunday	-13934
▁attempts	-13935
▁Golden	-13936
▁experim	-13937
▁enabling	-13938
▁Abhäng	-13939
▁Kroatien	-13940
▁Hungarian	-13941
▁luxurious	-13942
meld	-13943
▁Dolom	-13944
▁Zuverläss	-13945
▁reduzieren	-13946
EX	-13947
ROM	-13948
älsch	-13949
▁User	-13950
▁Sav	-13951
enth	-13952
haltungs	-13953
▁aufbauen	-13954
▁Vorbe	-13955
▁Holiday	-13956
▁insist	-13957
▁Islands	-13958
▁shap	-13959
▁Tennis	-13960
▁geraten	-13961
▁vorgestellt	-13962
ixel	-13963
anter	-13964
▁Tsch	-13965
▁sought	-13966
▁Kas	-13967
inken	-13968
▁Gewerk	-13969
▁villages	-13970
▁receiving	-13971
▁Vorrang	-13972
▁imports	-13973
▁Volkspartei	-13974
▁acting	-13975
▁abgestimmt	-13976
▁functional	-13977
▁2005,	-13978
sson	-13979
▁müs	-13980
▁suggestions	-13981
▁Kanada	-13982
▁weltweiten	-13983
▁Agriculture	-13984
▁Defiz	-13985
▁liefert	-13986
▁mittlere	-13987
▁shipping	-13988
▁MA	-13989
▁Metall	-13990
▁Adresse	-13991
▁philosophy	-13992
odex	-13993
▁upper	-13994
geladen	-13995
▁comparison	-13996
▁arguments	-13997
▁Vizepräsident	-13998
▁Por	-13999
streben	-14000
▁topics	-14001
▁teams	-14002
▁killed	-14003
▁verstärkt	-14004
ESCO	-14005
▁Satz	-14006
▁aktive	-14007
▁Reservierung	-14008
Qu	-14009
▁Satur	-14010
▁beibe	-14011
▁Konzep	-14012
▁director	-14013
▁difficulty	-14014
▁countryside	-14015
ruckt	-14016
▁Erbe	-14017
▁periods	-14018
▁ausgezeichneten	-14019
Server	-14020
▁neighb	-14021
▁Referenz	-14022
▁somit	-14023
▁Kräfte	-14024
▁Nummer	-14025
▁Ablehnung	-14026
▁EP	-14027
▁ing	-14028
onymous	-14029
▁Wähler	-14030
IK	-14031
raums	-14032
▁weshalb	-14033
▁Conc	-14034
▁wachsenden	-14035
▁Besides	-14036
▁satisfaction	-14037
▁verhindert	-14038
athedral	-14039
▁enormen	-14040
▁Entspannen	-14041
COM	-14042
▁Rez	-14043
▁shar	-14044
operations	-14045
▁Federation	-14046
clos	-14047
inde	-14048
▁belief	-14049
▁fehl	-14050
brochen	-14051
▁ACP	-14052
▁spoke	-14053
▁Thursday	-14054
▁anwesend	-14055
▁Berliner	-14056
▁revision	-14057
▁befürworten	-14058
Lös	-14059
chnen	-14060
ieden	-14061
▁Situ	-14062
▁iPhone	-14063
▁nachzu	-14064
▁überwacht	-14065
ounted	-14066
spezif	-14067
▁cuts	-14068
führungs	-14069
OP	-14070
▁Kühl	-14071
▁Muslim	-14072
▁Technik	-14073
▁invited	-14074
▁forests	-14075
▁gewähren	-14076
▁reduziert	-14077
town	-14078
rasch	-14079
▁hilf	-14080
▁laut	-14081
▁Alger	-14082
▁entreprene	-14083
▁verursachen	-14084
orse	-14085
▁Gefäng	-14086
▁finish	-14087
▁Atlantic	-14088
▁supplier	-14089
▁Herbst	-14090
▁lists	-14091
▁Stattdessen	-14092
Is	-14093
itra	-14094
▁remained	-14095
▁resource	-14096
▁stärkere	-14097
orer	-14098
▁bestehende	-14099
▁Verhandlungs	-14100
▁Ski	-14101
▁Having	-14102
▁berechnet	-14103
LAF	-14104
▁destroyed	-14105
▁description	-14106
bem	-14107
▁Fle	-14108
liehen	-14109
Prozess	-14110
ugoslaw	-14111
zwischen	-14112
▁unforget	-14113
▁aufgeführt	-14114
ami	-14115
▁Big	-14116
▁Cup	-14117
utreiben	-14118
▁Katastrophen	-14119
▁decade	-14120
▁realistic	-14121
burgh	-14122
▁Latein	-14123
▁reaction	-14124
cho	-14125
endo	-14126
▁twenty	-14127
▁Konstru	-14128
▁Lesen	-14129
▁offene	-14130
▁Secretary	-14131
He	-14132
▁Asian	-14133
▁Konflikte	-14134
▁verwe	-14135
▁Gespräche	-14136
▁Kapitel	-14137
▁departure	-14138
▁burn	-14139
▁einheitliche	-14140
▁representation	-14141
ürzt	-14142
▁Wird	-14143
▁Faktor	-14144
▁religion	-14145
▁cooperate	-14146
▁examine	-14147
▁sichere	-14148
▁complement	-14149
▁DC	-14150
▁Premierminister	-14151
▁euros	-14152
▁einladen	-14153
▁Eines	-14154
tim	-14155
▁Schrift	-14156
Entw	-14157
65	-14158
▁index	-14159
▁drinks	-14160
▁Gerät	-14161
vin	-14162
▁constitute	-14163
steht	-14164
▁genießt	-14165
▁permitted	-14166
ski	-14167
▁Gefangen	-14168
iza	-14169
▁genügend	-14170
▁Lieferanten	-14171
Bar	-14172
▁Reserve	-14173
▁sagten	-14174
iban	-14175
onic	-14176
▁standing	-14177
▁lit	-14178
rep	-14179
▁(5	-14180
▁unn	-14181
▁Fünf	-14182
amo	-14183
▁Guests	-14184
▁discipl	-14185
▁überein	-14186
▁versichern	-14187
tech	-14188
▁freedoms	-14189
▁Häuser	-14190
▁negotiating	-14191
site	-14192
uben	-14193
▁Hot	-14194
auschen	-14195
▁batter	-14196
▁Kulturen	-14197
▁Eigentums	-14198
genz	-14199
▁reput	-14200
▁golden	-14201
▁leaves	-14202
▁specified	-14203
▁reservations	-14204
utor	-14205
itzt	-14206
tokoll	-14207
▁enjoyed	-14208
bern	-14209
▁Großteil	-14210
laim	-14211
ärme	-14212
▁barriers	-14213
▁disabled	-14214
▁getö	-14215
▁scene	-14216
outique	-14217
▁obliged	-14218
▁inmitten	-14219
▁Telekommunik	-14220
ín	-14221
▁Sach	-14222
▁Travel	-14223
▁gefragt	-14224
▁überwinden	-14225
▁Generationen	-14226
züg	-14227
▁Wil	-14228
oubtedly	-14229
▁Kh	-14230
▁compe	-14231
▁ports	-14232
▁Place	-14233
▁Joseph	-14234
▁Sonntag	-14235
▁Bulgarien	-14236
▁significance	-14237
▁Cub	-14238
▁edge	-14239
▁Train	-14240
▁berühmt	-14241
▁Unsicherheit	-14242
porters	-14243
▁farming	-14244
stabilität	-14245
▁preventing	-14246
▁Mov	-14247
▁Meines	-14248
▁hardly	-14249
▁dependent	-14250
endar	-14251
▁Brief	-14252
▁bridge	-14253
▁colours	-14254
▁portugies	-14255
▁contributed	-14256
▁Föder	-14257
▁suffered	-14258
▁Entspannung	-14259
eta	-14260
aders	-14261
usch	-14262
Rooms	-14263
▁warrant	-14264
▁Allianz	-14265
herr	-14266
▁Bug	-14267
▁Pil	-14268
▁infr	-14269
▁Betreiber	-14270
▁cul	-14271
▁patient	-14272
▁Erreichung	-14273
▁intensiv	-14274
aux	-14275
cop	-14276
Beifall	-14277
▁Schaus	-14278
▁refers	-14279
▁rechten	-14280
▁Einstellung	-14281
pay	-14282
▁didn	-14283
▁teilzunehmen	-14284
▁Tonnen	-14285
anning	-14286
▁Zusch	-14287
▁horse	-14288
▁Addition	-14289
eitern	-14290
▁paying	-14291
▁Ausführung	-14292
▁hochwertigen	-14293
DI	-14294
▁munic	-14295
▁Besuchen	-14296
▁Finanzierungs	-14297
▁verläng	-14298
▁indirect	-14299
asbourg	-14300
istiken	-14301
▁Besatz	-14302
▁surely	-14303
esses	-14304
uggage	-14305
▁homes	-14306
▁filter	-14307
verl	-14308
▁Hat	-14309
▁Rod	-14310
▁Jung	-14311
▁trat	-14312
▁spreche	-14313
▁Kontinent	-14314
▁Plattform	-14315
▁justified	-14316
CE	-14317
▁Sy	-14318
▁Minute	-14319
▁Spekt	-14320
▁Finland	-14321
behandlung	-14322
▁Hit	-14323
▁module	-14324
völkerungs	-14325
xy	-14326
▁Neue	-14327
▁blind	-14328
▁Stärke	-14329
▁Belgien	-14330
zeichnungen	-14331
▁unabhängigen	-14332
48	-14333
Applause	-14334
ulse	-14335
▁surve	-14336
/1	-14337
▁Medik	-14338
berecht	-14339
▁Merkmale	-14340
▁kg	-14341
▁Weihn	-14342
▁doors	-14343
advant	-14344
▁Klaus	-14345
▁Bir	-14346
▁Monday	-14347
▁Nation	-14348
Technologie	-14349
igste	-14350
▁Stutt	-14351
▁handle	-14352
▁Mak	-14353
▁Rio	-14354
▁Ball	-14355
▁vorge	-14356
gefunden	-14357
▁umfassender	-14358
ffenden	-14359
▁movements	-14360
▁eingestellt	-14361
**	-14362
Pres	-14363
▁Alb	-14364
▁nord	-14365
▁Catal	-14366
▁retail	-14367
▁Erwachsene	-14368
▁voranzutreiben	-14369
oles	-14370
▁attrib	-14371
▁legally	-14372
▁65	-14373
rome	-14374
▁Imp	-14375
▁Märkten	-14376
▁Arbeitgeber	-14377
▁amen	-14378
▁Zimmers	-14379
▁integrierten	-14380
ingly	-14381
▁Hügel	-14382
▁liquid	-14383
▁Anfragen	-14384
▁schlagen	-14385
▁zurückkehren	-14386
▁Risik	-14387
▁umfassend	-14388
▁Gegenstand	-14389
▁Binnenmarktes	-14390
▁24.	-14391
ricted	-14392
open	-14393
▁scre	-14394
▁song	-14395
menade	-14396
▁verringert	-14397
iovis	-14398
ordan	-14399
▁none	-14400
47	-14401
▁EL	-14402
▁bab	-14403
▁enabled	-14404
▁mögen	-14405
▁55	-14406
▁UNESCO	-14407
▁gekenn	-14408
▁Stability	-14409
▁ECB	-14410
▁Inf	-14411
▁präz	-14412
▁sounds	-14413
▁Game	-14414
▁breach	-14415
▁dauert	-14416
▁complicated	-14417
anne	-14418
stanz	-14419
▁Käufer	-14420
▁normalen	-14421
▁recognized	-14422
37	-14423
6-	-14424
wirkt	-14425
▁gesp	-14426
▁eingeb	-14427
▁befürwortet	-14428
▁delicious	-14429
▁harmonisation	-14430
ausgaben	-14431
▁Zuständigkeit	-14432
▁gap	-14433
▁zit	-14434
cision	-14435
▁Detail	-14436
▁Ausrüstung	-14437
▁betrachtet	-14438
▁ordinary	-14439
▁welcomed	-14440
▁confirmation	-14441
▁paint	-14442
▁Firmen	-14443
▁spiegelt	-14444
▁gez	-14445
zonen	-14446
’.	-14447
▁Museen	-14448
siehe	-14449
chtzuer	-14450
▁achten	-14451
▁Donnerstag	-14452
▁humanitäre	-14453
chtzuerhalten	-14454
pat	-14455
emark	-14456
▁defe	-14457
▁config	-14458
ältigung	-14459
▁jüngste	-14460
▁passieren	-14461
made	-14462
▁Sky	-14463
▁erstre	-14464
fleisch	-14465
▁kolle	-14466
▁manual	-14467
▁Versionen	-14468
▁trademark	-14469
▁continuous	-14470
▁tast	-14471
▁genaue	-14472
▁proceedings	-14473
▁Zürich	-14474
▁kilomet	-14475
onto	-14476
▁pharm	-14477
▁wirtschaftlich	-14478
market	-14479
▁Ausmaß	-14480
▁publication	-14481
apel	-14482
organ	-14483
▁inev	-14484
▁Socialist	-14485
▁Programmen	-14486
▁stattdessen	-14487
▁supervision	-14488
isa	-14489
▁gestr	-14490
▁Medizin	-14491
aktions	-14492
personen	-14493
▁renowned	-14494
▁stärksten	-14495
▁Perspektive	-14496
▁Dikt	-14497
▁football	-14498
▁LateRooms	-14499
▁Strasbourg	-14500
▁Hom	-14501
quelle	-14502
rim	-14503
kreis	-14504
▁Album	-14505
General	-14506
▁Thailand	-14507
▁disadvant	-14508
▁ausdrück	-14509
▁Wochenende	-14510
▁lö	-14511
lined	-14512
▁Auditors	-14513
▁Education	-14514
▁kamen	-14515
▁festen	-14516
▁overview	-14517
▁allocated	-14518
▁lift	-14519
▁Dritte	-14520
▁skiing	-14521
▁generate	-14522
▁unforgettable	-14523
ede	-14524
▁synth	-14525
holen	-14526
▁liebe	-14527
▁CR	-14528
▁directed	-14529
▁langfristigen	-14530
▁Himmel	-14531
zeichnete	-14532
▁antworten	-14533
▁staatliche	-14534
▁sustainability	-14535
▁Mischung	-14536
▁Corporate	-14537
Fun	-14538
namen	-14539
▁übersch	-14540
▁fan	-14541
▁anzub	-14542
amerikanischen	-14543
liegt	-14544
▁Berge	-14545
▁berühmte	-14546
mess	-14547
▁korrig	-14548
▁appearance	-14549
mbuds	-14550
▁directory	-14551
van	-14552
▁EX	-14553
kultur	-14554
▁breiten	-14555
▁characters	-14556
mmern	-14557
▁1991	-14558
▁Oliven	-14559
▁Innovationen	-14560
erer	-14561
flow	-14562
▁HIV	-14563
▁Pac	-14564
▁firmly	-14565
cas	-14566
lückw	-14567
▁crop	-14568
▁Rechten	-14569
▁whereas	-14570
▁Satelliten	-14571
▁Plus	-14572
▁Academy	-14573
▁eurozone	-14574
▁ende	-14575
▁mächt	-14576
▁Australia	-14577
ignet	-14578
eschäd	-14579
▁Family	-14580
▁anzeigen	-14581
▁Existenz	-14582
▁specialist	-14583
fällig	-14584
▁acknowled	-14585
▁forthcoming	-14586
▁beglückw	-14587
▁instructions	-14588
▁wonach	-14589
▁turning	-14590
▁offizielle	-14591
suchen	-14592
▁Nahrungs	-14593
üne	-14594
▁spons	-14595
▁decline	-14596
▁reflected	-14597
▁simultane	-14598
▁Dort	-14599
▁Li	-14600
▁Porto	-14601
istischer	-14602
▁bevorzug	-14603
▁Voraussetzungen	-14604
▁Küchen	-14605
▁beings	-14606
zusammen	-14607
▁behinder	-14608
gemeinschaft	-14609
▁Kampagne	-14610
oys	-14611
▁glück	-14612
▁getötet	-14613
▁Wunder	-14614
▁introducing	-14615
▁sicheren	-14616
▁obstacles	-14617
▁Dokumenten	-14618
▁militärischen	-14619
coun	-14620
▁Eröff	-14621
▁Trend	-14622
▁islam	-14623
▁trends	-14624
usalem	-14625
▁Montag	-14626
▁anzuwenden	-14627
▁CF	-14628
▁festival	-14629
bil	-14630
quenz	-14631
▁ländliche	-14632
▁tennis	-14633
▁passion	-14634
schlüssel	-14635
verbrauch	-14636
▁Souverän	-14637
▁reflects	-14638
▁generations	-14639
▁breit	-14640
gelegte	-14641
iziente	-14642
zimmern	-14643
▁showed	-14644
etic	-14645
▁info	-14646
deckung	-14647
▁Individ	-14648
▁eingereich	-14649
▁Überlegungen	-14650
stock	-14651
▁Anlass	-14652
▁missing	-14653
▁everybody	-14654
▁Baby	-14655
formular	-14656
andt	-14657
▁anzup	-14658
usetzen	-14659
bezogene	-14660
▁indicate	-14661
▁diesbezüglich	-14662
▁Nap	-14663
▁Norm	-14664
▁roll	-14665
▁prime	-14666
▁Objekt	-14667
▁digitalen	-14668
▁strukture	-14669
▁Missbrauch	-14670
▁enterprise	-14671
▁Wol	-14672
friendly	-14673
▁sogenannte	-14674
▁außerord	-14675
▁42	-14676
stal	-14677
▁Befehl	-14678
uum	-14679
▁Beide	-14680
▁sharing	-14681
cul	-14682
▁ergänzen	-14683
Vor	-14684
ping	-14685
utral	-14686
termin	-14687
▁Traum	-14688
▁trips	-14689
▁täglichen	-14690
▁judge	-14691
▁anerkennen	-14692
▁universities	-14693
▁excurs	-14694
▁Berichten	-14695
▁explained	-14696
▁schlechte	-14697
▁considerably	-14698
arbeiter	-14699
▁ministers	-14700
▁sovereignty	-14701
sichtig	-14702
▁multilateral	-14703
onst	-14704
▁Quality	-14705
▁CAP	-14706
▁köst	-14707
▁Kategorien	-14708
BA	-14709
▁wunderschön	-14710
leiter	-14711
geschnitten	-14712
▁fans	-14713
▁Mexiko	-14714
▁losses	-14715
▁Eingang	-14716
▁parameters	-14717
▁gelegt	-14718
▁promin	-14719
▁präsentieren	-14720
odge	-14721
night	-14722
▁Staff	-14723
▁vessels	-14724
prozesses	-14725
67	-14726
▁Obst	-14727
▁gehe	-14728
▁hill	-14729
oter	-14730
▁1989	-14731
▁Full	-14732
▁ungar	-14733
pret	-14734
ässig	-14735
▁Format	-14736
▁realise	-14737
▁akzeptabel	-14738
lli	-14739
▁deserv	-14740
standard	-14741
▁Geburt	-14742
▁panoram	-14743
▁Umstruktur	-14744
pas	-14745
▁COM	-14746
▁transmission	-14747
uchs	-14748
freien	-14749
nische	-14750
[...]
